~o
<STREAMINFO> 1 25
<VECSIZE> 25<NULLD><MFCC_D_N_Z_0><DIAGC>
~t "T_b"
<TRANSP> 5
 0.000000e+00 1.000000e+00 0.000000e+00 0.000000e+00 0.000000e+00
 0.000000e+00 8.078938e-01 1.921062e-01 0.000000e+00 0.000000e+00
 0.000000e+00 0.000000e+00 6.334543e-01 3.665457e-01 0.000000e+00
 0.000000e+00 0.000000e+00 0.000000e+00 8.568515e-01 1.431485e-01
 0.000000e+00 0.000000e+00 0.000000e+00 0.000000e+00 0.000000e+00
~t "T_d"
<TRANSP> 5
 0.000000e+00 1.000000e+00 0.000000e+00 0.000000e+00 0.000000e+00
 0.000000e+00 6.940301e-01 3.059699e-01 0.000000e+00 0.000000e+00
 0.000000e+00 0.000000e+00 8.008741e-01 1.991259e-01 0.000000e+00
 0.000000e+00 0.000000e+00 0.000000e+00 8.209472e-01 1.790528e-01
 0.000000e+00 0.000000e+00 0.000000e+00 0.000000e+00 0.000000e+00
~t "T_f"
<TRANSP> 5
 0.000000e+00 1.000000e+00 0.000000e+00 0.000000e+00 0.000000e+00
 0.000000e+00 8.247779e-01 1.752221e-01 0.000000e+00 0.000000e+00
 0.000000e+00 0.000000e+00 7.173132e-01 2.826868e-01 0.000000e+00
 0.000000e+00 0.000000e+00 0.000000e+00 9.379265e-01 6.207350e-02
 0.000000e+00 0.000000e+00 0.000000e+00 0.000000e+00 0.000000e+00
~t "T_g"
<TRANSP> 5
 0.000000e+00 1.000000e+00 0.000000e+00 0.000000e+00 0.000000e+00
 0.000000e+00 7.965199e-01 2.034801e-01 0.000000e+00 0.000000e+00
 0.000000e+00 0.000000e+00 8.100915e-01 1.899085e-01 0.000000e+00
 0.000000e+00 0.000000e+00 0.000000e+00 8.674558e-01 1.325442e-01
 0.000000e+00 0.000000e+00 0.000000e+00 0.000000e+00 0.000000e+00
~t "T_k"
<TRANSP> 5
 0.000000e+00 1.000000e+00 0.000000e+00 0.000000e+00 0.000000e+00
 0.000000e+00 6.699654e-01 3.300346e-01 0.000000e+00 0.000000e+00
 0.000000e+00 0.000000e+00 5.419706e-01 4.580294e-01 0.000000e+00
 0.000000e+00 0.000000e+00 0.000000e+00 6.690575e-01 3.309425e-01
 0.000000e+00 0.000000e+00 0.000000e+00 0.000000e+00 0.000000e+00
~t "T_l"
<TRANSP> 5
 0.000000e+00 1.000000e+00 0.000000e+00 0.000000e+00 0.000000e+00
 0.000000e+00 6.546220e-01 3.453780e-01 0.000000e+00 0.000000e+00
 0.000000e+00 0.000000e+00 8.871018e-01 1.128982e-01 0.000000e+00
 0.000000e+00 0.000000e+00 0.000000e+00 8.511380e-01 1.488620e-01
 0.000000e+00 0.000000e+00 0.000000e+00 0.000000e+00 0.000000e+00
~t "T_m"
<TRANSP> 5
 0.000000e+00 1.000000e+00 0.000000e+00 0.000000e+00 0.000000e+00
 0.000000e+00 7.213020e-01 2.786980e-01 0.000000e+00 0.000000e+00
 0.000000e+00 0.000000e+00 8.382200e-01 1.617800e-01 0.000000e+00
 0.000000e+00 0.000000e+00 0.000000e+00 7.080555e-01 2.919445e-01
 0.000000e+00 0.000000e+00 0.000000e+00 0.000000e+00 0.000000e+00
~t "T_n"
<TRANSP> 5
 0.000000e+00 1.000000e+00 0.000000e+00 0.000000e+00 0.000000e+00
 0.000000e+00 7.532360e-01 2.467640e-01 0.000000e+00 0.000000e+00
 0.000000e+00 0.000000e+00 8.539901e-01 1.460099e-01 0.000000e+00
 0.000000e+00 0.000000e+00 0.000000e+00 8.375728e-01 1.624272e-01
 0.000000e+00 0.000000e+00 0.000000e+00 0.000000e+00 0.000000e+00
~t "T_p"
<TRANSP> 5
 0.000000e+00 1.000000e+00 0.000000e+00 0.000000e+00 0.000000e+00
 0.000000e+00 8.333330e-01 1.666670e-01 0.000000e+00 0.000000e+00
 0.000000e+00 0.000000e+00 9.356412e-01 6.435883e-02 0.000000e+00
 0.000000e+00 0.000000e+00 0.000000e+00 6.534892e-01 3.465108e-01
 0.000000e+00 0.000000e+00 0.000000e+00 0.000000e+00 0.000000e+00
~t "T_r"
<TRANSP> 5
 0.000000e+00 1.000000e+00 0.000000e+00 0.000000e+00 0.000000e+00
 0.000000e+00 6.464923e-01 3.535077e-01 0.000000e+00 0.000000e+00
 0.000000e+00 0.000000e+00 7.056935e-01 2.943064e-01 0.000000e+00
 0.000000e+00 0.000000e+00 0.000000e+00 8.315771e-01 1.684229e-01
 0.000000e+00 0.000000e+00 0.000000e+00 0.000000e+00 0.000000e+00
~t "T_s"
<TRANSP> 5
 0.000000e+00 1.000000e+00 0.000000e+00 0.000000e+00 0.000000e+00
 0.000000e+00 7.652780e-01 2.347220e-01 0.000000e+00 0.000000e+00
 0.000000e+00 0.000000e+00 8.682091e-01 1.317909e-01 0.000000e+00
 0.000000e+00 0.000000e+00 0.000000e+00 7.921089e-01 2.078912e-01
 0.000000e+00 0.000000e+00 0.000000e+00 0.000000e+00 0.000000e+00
~t "T_t"
<TRANSP> 5
 0.000000e+00 1.000000e+00 0.000000e+00 0.000000e+00 0.000000e+00
 0.000000e+00 8.825692e-01 1.174308e-01 0.000000e+00 0.000000e+00
 0.000000e+00 0.000000e+00 6.853644e-01 3.146356e-01 0.000000e+00
 0.000000e+00 0.000000e+00 0.000000e+00 8.005258e-01 1.994742e-01
 0.000000e+00 0.000000e+00 0.000000e+00 0.000000e+00 0.000000e+00
~t "T_v"
<TRANSP> 5
 0.000000e+00 1.000000e+00 0.000000e+00 0.000000e+00 0.000000e+00
 0.000000e+00 7.202478e-01 2.797522e-01 0.000000e+00 0.000000e+00
 0.000000e+00 0.000000e+00 7.758148e-01 2.241852e-01 0.000000e+00
 0.000000e+00 0.000000e+00 0.000000e+00 9.126320e-01 8.736805e-02
 0.000000e+00 0.000000e+00 0.000000e+00 0.000000e+00 0.000000e+00
~t "T_w"
<TRANSP> 5
 0.000000e+00 1.000000e+00 0.000000e+00 0.000000e+00 0.000000e+00
 0.000000e+00 5.813109e-01 4.186891e-01 0.000000e+00 0.000000e+00
 0.000000e+00 0.000000e+00 5.389782e-01 4.610218e-01 0.000000e+00
 0.000000e+00 0.000000e+00 0.000000e+00 7.791353e-01 2.208647e-01
 0.000000e+00 0.000000e+00 0.000000e+00 0.000000e+00 0.000000e+00
~t "T_y"
<TRANSP> 5
 0.000000e+00 1.000000e+00 0.000000e+00 0.000000e+00 0.000000e+00
 0.000000e+00 9.682729e-01 3.172706e-02 0.000000e+00 0.000000e+00
 0.000000e+00 0.000000e+00 6.004550e-01 3.995450e-01 0.000000e+00
 0.000000e+00 0.000000e+00 0.000000e+00 6.951703e-01 3.048297e-01
 0.000000e+00 0.000000e+00 0.000000e+00 0.000000e+00 0.000000e+00
~t "T_z"
<TRANSP> 5
 0.000000e+00 1.000000e+00 0.000000e+00 0.000000e+00 0.000000e+00
 0.000000e+00 8.562328e-01 1.437672e-01 0.000000e+00 0.000000e+00
 0.000000e+00 0.000000e+00 8.817461e-01 1.182539e-01 0.000000e+00
 0.000000e+00 0.000000e+00 0.000000e+00 8.560039e-01 1.439961e-01
 0.000000e+00 0.000000e+00 0.000000e+00 0.000000e+00 0.000000e+00
~t "T_aa"
<TRANSP> 5
 0.000000e+00 1.000000e+00 0.000000e+00 0.000000e+00 0.000000e+00
 0.000000e+00 7.959618e-01 2.040382e-01 0.000000e+00 0.000000e+00
 0.000000e+00 0.000000e+00 8.717732e-01 1.282268e-01 0.000000e+00
 0.000000e+00 0.000000e+00 0.000000e+00 7.142873e-01 2.857127e-01
 0.000000e+00 0.000000e+00 0.000000e+00 0.000000e+00 0.000000e+00
~t "T_ae"
<TRANSP> 5
 0.000000e+00 1.000000e+00 0.000000e+00 0.000000e+00 0.000000e+00
 0.000000e+00 7.371618e-01 2.628382e-01 0.000000e+00 0.000000e+00
 0.000000e+00 0.000000e+00 7.121242e-01 2.878758e-01 0.000000e+00
 0.000000e+00 0.000000e+00 0.000000e+00 8.051443e-01 1.948557e-01
 0.000000e+00 0.000000e+00 0.000000e+00 0.000000e+00 0.000000e+00
~t "T_ah"
<TRANSP> 5
 0.000000e+00 1.000000e+00 0.000000e+00 0.000000e+00 0.000000e+00
 0.000000e+00 9.210188e-01 7.898121e-02 0.000000e+00 0.000000e+00
 0.000000e+00 0.000000e+00 5.734891e-01 4.265109e-01 0.000000e+00
 0.000000e+00 0.000000e+00 0.000000e+00 9.550462e-01 4.495376e-02
 0.000000e+00 0.000000e+00 0.000000e+00 0.000000e+00 0.000000e+00
~t "T_ao"
<TRANSP> 5
 0.000000e+00 1.000000e+00 0.000000e+00 0.000000e+00 0.000000e+00
 0.000000e+00 7.976319e-01 2.023681e-01 0.000000e+00 0.000000e+00
 0.000000e+00 0.000000e+00 4.751246e-01 5.248754e-01 0.000000e+00
 0.000000e+00 0.000000e+00 0.000000e+00 5.443534e-01 4.556466e-01
 0.000000e+00 0.000000e+00 0.000000e+00 0.000000e+00 0.000000e+00
~t "T_aw"
<TRANSP> 5
 0.000000e+00 1.000000e+00 0.000000e+00 0.000000e+00 0.000000e+00
 0.000000e+00 2.233003e-01 7.766997e-01 0.000000e+00 0.000000e+00
 0.000000e+00 0.000000e+00 4.941979e-01 5.058021e-01 0.000000e+00
 0.000000e+00 0.000000e+00 0.000000e+00 9.288113e-01 7.118871e-02
 0.000000e+00 0.000000e+00 0.000000e+00 0.000000e+00 0.000000e+00
~t "T_ax"
<TRANSP> 5
 0.000000e+00 1.000000e+00 0.000000e+00 0.000000e+00 0.000000e+00
 0.000000e+00 5.915693e-01 4.084307e-01 0.000000e+00 0.000000e+00
 0.000000e+00 0.000000e+00 5.809606e-01 4.190394e-01 0.000000e+00
 0.000000e+00 0.000000e+00 0.000000e+00 9.184079e-01 8.159209e-02
 0.000000e+00 0.000000e+00 0.000000e+00 0.000000e+00 0.000000e+00
~t "T_ay"
<TRANSP> 5
 0.000000e+00 1.000000e+00 0.000000e+00 0.000000e+00 0.000000e+00
 0.000000e+00 8.269205e-01 1.730795e-01 0.000000e+00 0.000000e+00
 0.000000e+00 0.000000e+00 7.965373e-01 2.034627e-01 0.000000e+00
 0.000000e+00 0.000000e+00 0.000000e+00 7.935244e-01 2.064756e-01
 0.000000e+00 0.000000e+00 0.000000e+00 0.000000e+00 0.000000e+00
~t "T_ch"
<TRANSP> 5
 0.000000e+00 1.000000e+00 0.000000e+00 0.000000e+00 0.000000e+00
 0.000000e+00 8.793496e-01 1.206504e-01 0.000000e+00 0.000000e+00
 0.000000e+00 0.000000e+00 5.468988e-01 4.531012e-01 0.000000e+00
 0.000000e+00 0.000000e+00 0.000000e+00 8.526057e-01 1.473943e-01
 0.000000e+00 0.000000e+00 0.000000e+00 0.000000e+00 0.000000e+00
~t "T_dh"
<TRANSP> 5
 0.000000e+00 1.000000e+00 0.000000e+00 0.000000e+00 0.000000e+00
 0.000000e+00 8.591726e-01 1.408274e-01 0.000000e+00 0.000000e+00
 0.000000e+00 0.000000e+00 7.754617e-01 2.245383e-01 0.000000e+00
 0.000000e+00 0.000000e+00 0.000000e+00 4.649771e-01 5.350229e-01
 0.000000e+00 0.000000e+00 0.000000e+00 0.000000e+00 0.000000e+00
~t "T_eh"
<TRANSP> 5
 0.000000e+00 1.000000e+00 0.000000e+00 0.000000e+00 0.000000e+00
 0.000000e+00 6.794689e-01 3.205311e-01 0.000000e+00 0.000000e+00
 0.000000e+00 0.000000e+00 6.238313e-01 3.761687e-01 0.000000e+00
 0.000000e+00 0.000000e+00 0.000000e+00 8.867933e-01 1.132067e-01
 0.000000e+00 0.000000e+00 0.000000e+00 0.000000e+00 0.000000e+00
~t "T_el"
<TRANSP> 5
 0.000000e+00 1.000000e+00 0.000000e+00 0.000000e+00 0.000000e+00
 0.000000e+00 7.639136e-01 2.360864e-01 0.000000e+00 0.000000e+00
 0.000000e+00 0.000000e+00 9.060014e-01 9.399859e-02 0.000000e+00
 0.000000e+00 0.000000e+00 0.000000e+00 9.475200e-01 5.247996e-02
 0.000000e+00 0.000000e+00 0.000000e+00 0.000000e+00 0.000000e+00
~t "T_en"
<TRANSP> 5
 0.000000e+00 1.000000e+00 0.000000e+00 0.000000e+00 0.000000e+00
 0.000000e+00 8.517810e-01 1.482190e-01 0.000000e+00 0.000000e+00
 0.000000e+00 0.000000e+00 8.028549e-01 1.971451e-01 0.000000e+00
 0.000000e+00 0.000000e+00 0.000000e+00 8.541173e-01 1.458827e-01
 0.000000e+00 0.000000e+00 0.000000e+00 0.000000e+00 0.000000e+00
~t "T_er"
<TRANSP> 5
 0.000000e+00 1.000000e+00 0.000000e+00 0.000000e+00 0.000000e+00
 0.000000e+00 8.908168e-01 1.091832e-01 0.000000e+00 0.000000e+00
 0.000000e+00 0.000000e+00 8.116349e-01 1.883651e-01 0.000000e+00
 0.000000e+00 0.000000e+00 0.000000e+00 8.959397e-01 1.040603e-01
 0.000000e+00 0.000000e+00 0.000000e+00 0.000000e+00 0.000000e+00
~t "T_ey"
<TRANSP> 5
 0.000000e+00 1.000000e+00 0.000000e+00 0.000000e+00 0.000000e+00
 0.000000e+00 7.584448e-01 2.415552e-01 0.000000e+00 0.000000e+00
 0.000000e+00 0.000000e+00 8.684539e-01 1.315461e-01 0.000000e+00
 0.000000e+00 0.000000e+00 0.000000e+00 8.787766e-01 1.212234e-01
 0.000000e+00 0.000000e+00 0.000000e+00 0.000000e+00 0.000000e+00
~t "T_hh"
<TRANSP> 5
 0.000000e+00 1.000000e+00 0.000000e+00 0.000000e+00 0.000000e+00
 0.000000e+00 7.969289e-01 2.030711e-01 0.000000e+00 0.000000e+00
 0.000000e+00 0.000000e+00 7.275355e-01 2.724645e-01 0.000000e+00
 0.000000e+00 0.000000e+00 0.000000e+00 9.159898e-01 8.401021e-02
 0.000000e+00 0.000000e+00 0.000000e+00 0.000000e+00 0.000000e+00
~t "T_ih"
<TRANSP> 5
 0.000000e+00 1.000000e+00 0.000000e+00 0.000000e+00 0.000000e+00
 0.000000e+00 8.516662e-01 1.483338e-01 0.000000e+00 0.000000e+00
 0.000000e+00 0.000000e+00 6.994818e-01 3.005182e-01 0.000000e+00
 0.000000e+00 0.000000e+00 0.000000e+00 5.095145e-01 4.904855e-01
 0.000000e+00 0.000000e+00 0.000000e+00 0.000000e+00 0.000000e+00
~t "T_iy"
<TRANSP> 5
 0.000000e+00 1.000000e+00 0.000000e+00 0.000000e+00 0.000000e+00
 0.000000e+00 8.796824e-01 1.203176e-01 0.000000e+00 0.000000e+00
 0.000000e+00 0.000000e+00 7.581384e-01 2.418616e-01 0.000000e+00
 0.000000e+00 0.000000e+00 0.000000e+00 7.750058e-01 2.249942e-01
 0.000000e+00 0.000000e+00 0.000000e+00 0.000000e+00 0.000000e+00
~t "T_jh"
<TRANSP> 5
 0.000000e+00 1.000000e+00 0.000000e+00 0.000000e+00 0.000000e+00
 0.000000e+00 8.461512e-01 1.538488e-01 0.000000e+00 0.000000e+00
 0.000000e+00 0.000000e+00 6.365255e-01 3.634746e-01 0.000000e+00
 0.000000e+00 0.000000e+00 0.000000e+00 9.056020e-01 9.439799e-02
 0.000000e+00 0.000000e+00 0.000000e+00 0.000000e+00 0.000000e+00
~t "T_ng"
<TRANSP> 5
 0.000000e+00 1.000000e+00 0.000000e+00 0.000000e+00 0.000000e+00
 0.000000e+00 8.874346e-01 1.125654e-01 0.000000e+00 0.000000e+00
 0.000000e+00 0.000000e+00 6.989485e-01 3.010515e-01 0.000000e+00
 0.000000e+00 0.000000e+00 0.000000e+00 8.545032e-01 1.454968e-01
 0.000000e+00 0.000000e+00 0.000000e+00 0.000000e+00 0.000000e+00
~t "T_ow"
<TRANSP> 5
 0.000000e+00 1.000000e+00 0.000000e+00 0.000000e+00 0.000000e+00
 0.000000e+00 5.957472e-01 4.042528e-01 0.000000e+00 0.000000e+00
 0.000000e+00 0.000000e+00 4.523841e-01 5.476159e-01 0.000000e+00
 0.000000e+00 0.000000e+00 0.000000e+00 5.708482e-01 4.291518e-01
 0.000000e+00 0.000000e+00 0.000000e+00 0.000000e+00 0.000000e+00
~t "T_oy"
<TRANSP> 5
 0.000000e+00 1.000000e+00 0.000000e+00 0.000000e+00 0.000000e+00
 0.000000e+00 9.066182e-01 9.338184e-02 0.000000e+00 0.000000e+00
 0.000000e+00 0.000000e+00 8.050012e-01 1.949988e-01 0.000000e+00
 0.000000e+00 0.000000e+00 0.000000e+00 8.115304e-01 1.884696e-01
 0.000000e+00 0.000000e+00 0.000000e+00 0.000000e+00 0.000000e+00
~t "T_sh"
<TRANSP> 5
 0.000000e+00 1.000000e+00 0.000000e+00 0.000000e+00 0.000000e+00
 0.000000e+00 7.858202e-01 2.141798e-01 0.000000e+00 0.000000e+00
 0.000000e+00 0.000000e+00 9.003527e-01 9.964726e-02 0.000000e+00
 0.000000e+00 0.000000e+00 0.000000e+00 8.461664e-01 1.538336e-01
 0.000000e+00 0.000000e+00 0.000000e+00 0.000000e+00 0.000000e+00
~t "T_th"
<TRANSP> 5
 0.000000e+00 1.000000e+00 0.000000e+00 0.000000e+00 0.000000e+00
 0.000000e+00 8.908974e-01 1.091026e-01 0.000000e+00 0.000000e+00
 0.000000e+00 0.000000e+00 8.007966e-01 1.992034e-01 0.000000e+00
 0.000000e+00 0.000000e+00 0.000000e+00 9.237029e-01 7.629712e-02
 0.000000e+00 0.000000e+00 0.000000e+00 0.000000e+00 0.000000e+00
~t "T_uh"
<TRANSP> 5
 0.000000e+00 1.000000e+00 0.000000e+00 0.000000e+00 0.000000e+00
 0.000000e+00 3.201100e-01 6.798900e-01 0.000000e+00 0.000000e+00
 0.000000e+00 0.000000e+00 6.830312e-01 3.169688e-01 0.000000e+00
 0.000000e+00 0.000000e+00 0.000000e+00 8.664771e-01 1.335229e-01
 0.000000e+00 0.000000e+00 0.000000e+00 0.000000e+00 0.000000e+00
~t "T_uw"
<TRANSP> 5
 0.000000e+00 1.000000e+00 0.000000e+00 0.000000e+00 0.000000e+00
 0.000000e+00 8.455447e-01 1.544553e-01 0.000000e+00 0.000000e+00
 0.000000e+00 0.000000e+00 7.923145e-01 2.076855e-01 0.000000e+00
 0.000000e+00 0.000000e+00 0.000000e+00 7.216948e-01 2.783052e-01
 0.000000e+00 0.000000e+00 0.000000e+00 0.000000e+00 0.000000e+00
~t "T_zh"
<TRANSP> 5
 0.000000e+00 1.000000e+00 0.000000e+00 0.000000e+00 0.000000e+00
 0.000000e+00 9.051089e-01 9.489106e-02 0.000000e+00 0.000000e+00
 0.000000e+00 0.000000e+00 8.278364e-01 1.721636e-01 0.000000e+00
 0.000000e+00 0.000000e+00 0.000000e+00 8.325275e-01 1.674725e-01
 0.000000e+00 0.000000e+00 0.000000e+00 0.000000e+00 0.000000e+00
~s "ST_f_2_1"
<MEAN> 25
 -1.340233e+01 -1.298479e+01 1.050218e+01 -1.733263e-01 -2.734896e+00 -2.714216e+00 1.166776e+01 5.390287e-01 -4.233253e+00 1.005708e+00 3.044230e+00 1.373609e+00 9.550712e-02 -4.860449e-01 1.859054e-01 -1.555290e-01 -4.166234e-02 -6.570522e-01 -4.470515e-02 5.220232e-03 -2.208728e-01 -5.223681e-01 -3.550804e-02 -2.153754e-01 8.723404e-01
<VARIANCE> 25
 1.077611e+01 4.024612e+00 2.886371e+01 1.063857e+01 6.166152e+00 9.407932e+00 1.328931e+01 1.187957e+01 1.072593e+01 1.053705e+01 9.837477e+00 9.861543e+00 1.940906e+00 7.889965e-01 9.716250e-01 5.000164e-01 7.746599e-01 5.082031e-01 1.412190e+00 1.128210e+00 1.780411e+00 1.630845e+00 1.065352e+00 1.205921e+00 1.667096e-01
<GCONST> 7.263139e+01
~s "ST_f_3_1"
<MEAN> 25
 1.595698e+00 -6.013805e+00 7.660322e+00 2.231314e+00 -4.453372e+00 -1.109423e+01 1.004480e+00 2.651848e+00 -2.821968e+00 -5.715112e+00 -4.731727e+00 -2.957157e+00 5.460528e+00 2.771902e+00 -1.618602e+00 1.386438e+00 -1.810264e+00 -3.801538e+00 -4.509580e+00 1.692528e+00 1.814614e+00 -2.710479e+00 -2.980250e+00 -7.020196e-01 4.775765e-01
<VARIANCE> 25
 8.904379e+01 3.665086e+01 1.599814e+01 1.513703e+01 1.189069e+01 5.666092e+01 6.452638e+01 2.346634e+01 2.577613e+01 3.523403e+01 4.393871e+01 1.437279e+01 2.374640e+00 1.454742e+00 2.862050e+00 1.184922e+00 7.418528e-01 2.436912e+00 3.366207e+00 2.133517e+00 2.134978e+00 2.067191e+00 2.132894e+00 1.622694e+00 3.205073e-01
<GCONST> 9.323512e+01
~s "ST_f_4_1"
<MEAN> 25
 6.296115e+00 5.966933e-01 2.374457e+00 -1.646025e-01 -7.531681e+00 -1.172951e+01 -5.848375e+00 -5.323928e-01 5.732587e-02 -1.745090e+00 -2.291335e+00 -1.438083e+00 -6.250014e-01 3.864549e-01 1.516023e-01 -1.888900e-01 4.307700e-01 9.522074e-01 4.397096e-01 -3.916171e-01 -1.720625e-01 6.919169e-01 5.203747e-01 1.137827e-01 -5.073547e-01
<VARIANCE> 25
 5.057868e+01 2.206916e+01 1.098801e+01 1.086499e+01 2.598664e+01 6.428175e+01 4.756865e+01 2.535413e+01 1.269374e+01 3.231004e+01 2.045713e+01 6.289614e+00 2.812871e+00 3.147470e+00 1.494117e+00 1.318321e+00 2.301950e+00 3.232484e+00 4.327219e+00 3.863663e+00 1.875829e+00 2.274675e+00 2.347996e+00 6.958754e-01 2.155838e+00
<GCONST> 9.352897e+01
~s "ST_aa_2_1"
<MEAN> 25
 7.383204e+00 3.488877e+00 3.600312e-02 -2.741123e-01 -5.058500e+00 -8.294283e+00 -5.333402e+00 1.865144e+00 5.049358e+00 1.668789e+00 -2.546998e+00 -2.388274e+00 2.069881e+00 2.109036e-01 -3.968883e-01 -2.910103e-01 -1.457049e+00 -3.041153e+00 -2.468520e+00 -2.226249e-01 8.765993e-01 -4.431151e-01 -6.689267e-01 5.356842e-01 1.522984e+00
<VARIANCE> 25
 4.463422e+01 1.827005e+01 2.685621e+01 2.403437e+01 2.815802e+01 8.159510e+01 8.195815e+01 1.459091e+01 3.100750e+01 2.606860e+01 3.003227e+01 2.074825e+01 2.497339e+00 2.155075e+00 1.266414e+00 1.526349e+00 1.480024e+00 3.150723e+00 3.741647e+00 1.627213e+00 2.310524e+00 2.067035e+00 3.227909e+00 2.432667e+00 1.771265e+00
<GCONST> 9.696088e+01
~s "ST_aa_3_1"
<MEAN> 25
 1.076706e+01 -8.812555e-01 -2.625903e+00 -4.981201e+00 -9.728339e+00 -1.230137e+01 -8.943085e+00 -9.002407e-01 6.268758e+00 4.769389e+00 7.248793e-01 -1.308672e+00 3.725430e-02 -2.530595e-01 -2.188204e-01 -3.306193e-01 -6.963768e-03 4.014169e-01 4.073057e-01 -1.800616e-02 -3.962580e-01 -3.338858e-01 8.099159e-02 -2.362211e-02 1.813051e-01
<VARIANCE> 25
 3.401970e+00 2.558063e+01 1.314926e+01 2.554217e+01 5.373741e+00 3.153287e+01 1.937070e+01 1.345377e+01 1.642773e+01 3.871035e+01 1.385487e+01 2.485725e+01 1.758998e-01 8.706026e-01 3.254707e-01 3.260791e-01 4.986652e-01 8.548552e-01 1.020594e+00 1.350730e+00 6.283485e-01 1.464070e+00 1.102670e+00 7.740862e-01 6.985207e-01
<GCONST> 7.397057e+01
~s "ST_aa_4_1"
<MEAN> 25
 9.187475e+00 3.387888e+00 -2.255715e+00 -4.070998e+00 -7.633418e+00 -7.091653e+00 -1.977315e+00 3.854889e+00 5.901787e+00 1.714201e+00 -1.528224e+00 -1.501818e+00 -1.049215e+00 4.374079e-01 1.323632e-01 5.093931e-01 1.677193e+00 2.344911e+00 1.364106e+00 1.135645e-01 -3.340973e-01 -7.337737e-03 -3.268065e-01 -2.288782e-01 -1.194962e+00
<VARIANCE> 25
 2.185091e+01 1.680558e+01 1.732213e+01 1.526406e+01 1.256958e+01 3.815297e+01 4.215125e+01 2.724680e+01 2.000090e+01 2.843863e+01 1.320828e+01 8.491965e+00 1.195245e+00 2.280536e+00 1.214096e+00 6.293802e-01 1.347359e+00 2.614431e+00 1.342073e+00 2.624973e+00 2.385376e+00 2.050138e+00 2.308523e+00 2.237467e+00 7.832912e-01
<GCONST> 8.795013e+01
~s "ST_s_2_1"
<MEAN> 25
 -4.701979e+00 -4.105672e+00 6.234748e+00 2.431650e+00 -1.598826e+00 1.726093e+00 7.988908e+00 -4.066738e-01 -2.989939e+00 2.989206e+00 1.051614e+00 -7.092878e-01 -1.329685e+00 -1.532929e+00 1.249501e+00 -5.787452e-01 -8.147042e-01 -3.854035e-01 1.233674e+00 -8.779691e-01 -7.525207e-01 8.609399e-01 1.876572e-01 8.314113e-04 6.219410e-01
<VARIANCE> 25
 1.021341e+01 1.509263e+01 3.825760e+01 1.140256e+01 1.631377e+01 1.502305e+01 2.521114e+01 1.153841e+01 1.935986e+01 1.213012e+01 1.530332e+01 1.016846e+01 1.534880e+00 7.367015e-01 1.557740e+00 1.408484e+00 9.552704e-01 9.150778e-01 1.311930e+00 9.710684e-01 1.439635e+00 1.237151e+00 1.198768e+00 1.046792e+00 3.215850e-01
<GCONST> 7.942983e+01
~s "ST_s_3_1"
<MEAN> 25
 -1.097304e+01 -7.717416e+00 1.235241e+01 -2.983482e+00 -2.714913e+00 5.339389e-01 1.126939e+01 -4.647300e+00 -3.966182e+00 4.343887e+00 -3.839308e-01 -5.194111e-01 -3.017962e-01 -2.747011e-01 -3.379870e-02 -2.319912e-01 1.427601e-02 2.310895e-01 1.567779e-01 -1.077171e-01 7.462886e-02 2.585171e-01 7.730652e-02 -7.533225e-03 -2.468812e-02
<VARIANCE> 25
 1.149380e+01 8.762936e+00 1.209340e+01 2.208913e+01 2.110429e+01 1.244760e+01 2.964403e+01 1.942015e+01 2.874920e+01 1.315800e+01 1.446101e+01 1.532103e+01 7.408511e-01 4.248621e-01 8.096166e-01 1.151998e+00 9.986521e-01 1.023564e+00 1.110424e+00 1.279576e+00 1.188461e+00 9.641004e-01 1.164877e+00 1.151730e+00 2.286860e-01
<GCONST> 7.751206e+01
~s "ST_s_4_1"
<MEAN> 25
 -6.341634e+00 -5.520698e+00 4.068024e+00 2.759990e-01 -2.100772e+00 2.866593e+00 8.789528e+00 -8.370569e-01 -2.662347e+00 3.673001e+00 7.942632e-01 -1.337967e+00 7.356990e-01 1.101869e+00 -1.575968e+00 2.113193e-01 8.324488e-01 4.150826e-01 -1.392390e+00 7.491122e-01 9.000486e-01 -5.811848e-01 9.563415e-02 1.317001e-01 -7.921086e-01
<VARIANCE> 25
 1.082401e+01 1.392057e+01 2.728684e+01 1.319602e+01 1.676674e+01 1.392380e+01 3.155073e+01 1.787976e+01 2.098323e+01 1.593204e+01 1.052771e+01 1.226490e+01 1.036560e+00 7.927985e-01 1.228239e+00 1.153621e+00 1.299250e+00 1.461838e+00 1.652747e+00 1.284387e+00 1.476484e+00 1.165522e+00 1.477798e+00 1.009721e+00 4.943625e-01
<GCONST> 8.109444e+01
~s "ST_en_2_1"
<MEAN> 25
 6.713689e+00 4.287521e+00 6.740332e-01 2.960037e+00 3.038023e+00 1.413714e+00 -1.712626e+00 -3.309895e+00 -2.907804e+00 -3.958809e+00 -5.519489e+00 -4.224094e+00 -6.306535e-01 3.792934e-01 6.877123e-01 4.884312e-01 4.965917e-01 7.966769e-01 7.904072e-01 2.533151e-01 -3.361238e-02 2.440463e-01 5.912369e-01 5.830441e-01 -5.067937e-01
<VARIANCE> 25
 2.867031e+00 2.682129e+00 4.322269e+00 2.708120e+00 1.739224e+00 7.234991e+00 5.103799e+00 5.851514e+00 1.984771e+00 6.257846e+00 2.613363e+00 5.980503e+00 7.777137e-02 2.446217e-01 3.478285e-01 4.501336e-01 7.038203e-01 2.963850e-01 2.558563e-01 5.354701e-01 6.489102e-01 5.089232e-01 4.557879e-01 5.490565e-01 4.299396e-02
<GCONST> 4.663313e+01
~s "ST_en_3_1"
<MEAN> 25
 1.566549e+00 5.339635e+00 5.040887e+00 4.488475e+00 4.642162e+00 5.744081e+00 3.378019e+00 1.323954e+00 -4.351138e-01 -6.306436e-01 1.589126e-01 -7.723865e-01 -1.023469e+00 -2.191216e-01 3.250706e-01 8.234412e-02 1.989116e-02 3.487436e-01 3.944786e-01 5.817322e-01 5.354281e-01 7.576377e-01 5.242003e-01 -1.871619e-01 -5.871491e-01
<VARIANCE> 25
 5.189979e+00 8.862247e-01 2.647827e+00 1.547436e+00 1.630978e+00 4.593159e+00 2.112554e+00 3.488595e+00 3.874017e+00 4.471972e+00 3.516992e+00 5.592201e+00 2.153063e-02 2.466543e-01 5.975045e-01 2.421613e-01 1.578100e-01 4.457581e-01 3.941069e-01 2.502007e-01 2.812678e-01 3.774382e-01 8.133352e-01 9.884160e-01 2.519909e-02
<GCONST> 4.044130e+01
~s "ST_en_4_1"
<MEAN> 25
 -3.549555e+00 1.238761e+00 1.996057e+00 1.329553e+00 1.645333e+00 3.286050e+00 2.092163e+00 9.994389e-01 9.439596e-01 1.122916e+00 8.090441e-01 -5.122417e-01 -5.133088e-01 -6.733801e-01 -6.913819e-01 -6.993185e-01 -5.848938e-01 -5.729197e-01 -2.099248e-01 -7.076309e-02 -1.711429e-01 7.405099e-03 3.471380e-01 4.926565e-01 -2.314797e-01
<VARIANCE> 25
 2.823503e+00 2.563726e+00 3.069982e+00 3.668661e+00 4.214318e+00 4.627127e+00 5.189161e+00 3.573549e+00 2.165090e+00 4.674490e+00 6.890646e+00 7.487266e+00 7.264042e-02 1.438552e-01 3.138462e-01 3.508794e-01 2.863239e-01 3.947526e-01 6.999921e-01 7.936445e-01 2.760297e-01 3.478634e-01 7.031229e-01 1.026654e+00 1.434597e-02
<GCONST> 4.604770e+01
~s "ST_v_2_1"
<MEAN> 25
 8.885886e+00 1.489700e+00 -1.316670e+00 8.249196e+00 1.380662e+01 4.957727e+00 -8.367691e+00 -9.903552e+00 -7.252514e+00 -5.389836e+00 -1.982470e+00 -1.728306e+00 -5.288068e-01 1.529700e+00 1.351408e-01 -1.774521e+00 -1.854127e+00 8.237057e-01 2.903974e+00 1.287068e+00 -2.396815e-01 -2.276789e-01 -1.226756e-01 1.046279e-01 -9.162619e-01
<VARIANCE> 25
 4.378403e+00 1.020560e+01 5.265969e+00 1.560889e+01 1.932265e+01 1.071742e+01 2.550795e+01 1.584134e+01 1.131945e+01 1.460763e+01 3.621907e+00 7.277514e+00 2.544434e-01 2.446840e-01 8.615941e-01 7.898326e-01 1.219184e+00 1.726687e+00 9.620218e-01 3.190172e+00 2.507401e+00 1.794712e+00 8.023862e-01 1.196527e+00 1.633114e-01
<GCONST> 7.222588e+01
~s "ST_v_3_1"
<MEAN> 25
 4.331324e+00 5.873590e+00 2.416581e+00 3.821404e+00 5.873884e+00 3.653905e+00 2.283674e-01 -2.292580e+00 -2.555646e+00 -2.156548e+00 -2.443869e+00 -2.113132e+00 -1.385796e+00 9.961066e-02 8.156389e-01 -1.825804e-01 -7.403408e-01 -1.956636e-01 8.462715e-01 8.137493e-01 9.899015e-01 1.451114e+00 7.432588e-01 2.075250e-01 -8.357995e-01
<VARIANCE> 25
 6.311956e+00 3.107311e+00 7.329027e+00 7.717278e+00 8.243126e+00 5.354132e+00 5.765236e+00 1.129836e+01 1.082567e+01 1.114073e+01 8.920711e+00 8.331697e+00 2.368230e-01 6.681200e-01 7.129408e-01 6.468461e-01 1.299647e+00 7.086063e-01 7.406440e-01 1.495680e+00 9.360862e-01 6.928468e-01 8.279631e-01 7.131257e-01 1.342676e-01
<GCONST> 6.445761e+01
~s "ST_v_4_1"
<MEAN> 25
 -2.639821e+00 -3.022265e-01 -4.346341e-01 -1.052013e+00 1.097951e+00 2.651804e+00 3.765783e+00 4.956571e-01 -2.278998e-01 3.017321e-01 -1.405126e+00 -1.799754e+00 -3.269991e-01 -4.135653e-01 -3.229541e-01 -4.170294e-01 -3.799905e-01 -1.129529e-01 2.375899e-01 2.865513e-01 2.357232e-01 9.723540e-02 -2.615942e-02 -4.242506e-02 -6.509954e-02
<VARIANCE> 25
 4.061465e+00 8.246549e+00 1.087767e+01 1.151103e+01 1.353747e+01 9.301067e+00 1.000579e+01 1.128488e+01 1.176938e+01 1.015517e+01 7.658514e+00 7.688927e+00 6.162989e-01 7.392899e-01 9.996262e-01 9.545547e-01 7.410214e-01 8.373007e-01 6.840897e-01 6.667657e-01 9.000204e-01 1.076907e+00 7.803665e-01 9.432580e-01 3.950309e-01
<GCONST> 6.934787e+01
~s "ST_sh_2_1"
<MEAN> 25
 3.554655e+00 -6.319114e+00 -2.579537e+00 2.426450e+00 2.714170e+00 -3.980587e+00 -1.818057e+00 -2.565343e+00 -5.506975e+00 -2.824182e+00 -1.621751e+00 2.272190e+00 -9.550722e-01 -1.528632e+00 1.896050e-01 2.654301e-01 -7.291729e-02 -3.158822e-02 5.359430e-01 4.193431e-01 6.654115e-01 5.026126e-01 -8.889040e-02 -6.775993e-02 1.380135e-02
<VARIANCE> 25
 4.652678e+01 4.034715e+01 2.792909e+01 4.519489e+01 4.138042e+01 6.352712e+01 3.767762e+01 1.026173e+01 1.596862e+01 1.547372e+01 8.761881e+00 1.504010e+01 1.191629e+00 2.728462e+00 1.902084e+00 1.504302e+00 1.409804e+00 2.771014e+00 1.609818e+00 1.980832e+00 1.967168e+00 1.635647e+00 4.690187e-01 7.264585e-01 3.263809e-01
<GCONST> 8.857270e+01
~s "ST_sh_3_1"
<MEAN> 25
 -8.719207e+00 -1.930969e+01 3.958918e+00 8.805270e+00 6.161513e+00 -2.688738e+00 -4.752120e-01 -9.576448e-01 4.227589e+00 2.072845e+00 2.508966e-02 2.652352e+00 -5.725601e-01 -1.288895e+00 8.333829e-02 -1.460945e-01 -2.043552e-01 -4.140021e-01 -1.776778e-01 -1.451720e-01 4.172857e-01 1.882378e-01 1.790140e-02 3.432575e-01 4.236968e-01
<VARIANCE> 25
 7.830063e+00 2.097949e+01 8.142559e+00 9.620621e+00 3.102946e+01 1.825554e+01 9.946709e+00 1.462556e+01 1.599541e+01 1.594913e+01 8.059157e+00 1.846098e+01 9.726962e-01 2.800404e+00 5.445531e-01 6.943456e-01 1.112806e+00 1.418767e+00 7.837441e-01 7.805457e-01 1.134888e+00 1.222707e+00 6.570163e-01 7.543604e-01 3.182953e-01
<GCONST> 7.574867e+01
~s "ST_sh_4_1"
<MEAN> 25
 -4.661669e+00 -1.467443e+01 -6.865327e-01 4.034955e+00 3.339654e+00 -2.244525e-01 -1.276755e+00 -2.115856e+00 1.581019e+00 1.305303e+00 -1.858366e+00 1.868558e+00 1.714123e+00 3.172209e+00 -6.279500e-01 -5.633240e-01 -2.863339e-01 4.472591e-01 -3.804015e-01 -9.175980e-02 -7.933165e-01 -7.891916e-01 -2.447358e-01 -3.196191e-01 -7.404332e-01
<VARIANCE> 25
 1.702953e+01 7.523248e+01 1.457388e+01 1.390824e+01 1.169960e+01 1.624534e+01 1.679282e+01 9.303686e+00 2.258267e+01 1.118890e+01 8.093075e+00 1.369392e+01 3.001684e+00 5.665455e+00 1.588902e+00 1.631355e+00 1.036291e+00 1.298241e+00 1.748864e+00 1.366899e+00 2.106937e+00 1.959419e+00 1.129722e+00 1.079984e+00 6.464138e-01
<GCONST> 8.508762e+01
~s "ST_uh_2_1"
<MEAN> 25
 1.066391e+00 2.781959e+00 3.631908e+00 2.782751e+00 9.576110e-01 3.074613e-01 -1.029036e+00 -1.984312e+00 8.108188e-01 1.736134e+00 1.310841e+00 -4.886276e-01 1.465799e+00 5.038338e-01 -2.930453e-01 -1.193459e+00 -2.363939e+00 -2.699330e+00 -1.524436e+00 -5.744257e-01 2.675831e-01 1.055131e-02 -5.587154e-02 -5.179184e-01 1.179825e+00
<VARIANCE> 25
 2.307388e+01 1.238464e+01 3.386299e+01 4.576271e+01 4.923289e+01 3.443952e+01 3.324708e+01 1.141669e+01 6.918612e+00 6.360608e+00 6.266748e+00 6.850057e-01 1.191239e+00 1.661792e+00 3.956517e+00 4.356929e+00 3.538682e+00 2.607484e+00 3.897981e+00 7.312592e-01 6.922788e-01 1.405651e+00 8.348173e-01 5.836338e-01 2.027815e+00
<GCONST> 8.432426e+01
~s "ST_uh_3_1"
<MEAN> 25
 5.223463e+00 3.128034e+00 -1.218821e+00 -5.529999e+00 -9.656662e+00 -6.259481e+00 2.124159e+00 -1.728349e-01 4.770180e-01 -5.922581e-02 -3.381484e-01 -3.442032e+00 1.723376e+00 1.233044e+00 9.181976e-01 4.340156e-01 -5.317968e-01 -1.393878e+00 -1.497635e+00 -6.131920e-01 -2.101880e-02 -4.531861e-01 -1.086709e+00 -2.205958e-01 9.031811e-01
<VARIANCE> 25
 1.396257e+01 1.985584e+01 3.064974e+01 2.774606e+01 2.137639e+01 1.372598e+01 9.379319e+01 1.726682e+01 1.363395e+01 9.165945e+00 1.684091e+01 1.226807e+01 7.298656e-01 2.868688e+00 4.896455e+00 5.478408e+00 6.863103e+00 3.244863e+00 5.404852e+00 2.231016e+00 2.933392e+00 7.989647e-01 1.325148e+00 1.036570e+00 2.212910e+00
<GCONST> 9.313259e+01
~s "ST_uh_4_1"
<MEAN> 25
 5.659888e+00 8.246934e+00 6.900363e+00 2.798439e+00 -5.793133e+00 -1.134203e+01 -1.194855e+01 -5.265110e+00 -1.172564e-01 -3.567591e-01 -1.564864e+00 8.435727e-02 -4.621241e-01 -4.892528e-01 -1.689287e-01 3.135641e-02 8.579023e-02 6.574050e-02 4.225504e-01 2.411245e-01 -3.308043e-01 -2.395316e-01 -3.391373e-01 -4.045828e-02 -1.796902e-01
<VARIANCE> 25
 2.759982e+01 1.333409e+01 9.069855e+00 1.150524e+01 2.951866e+00 1.982033e+01 1.520995e+01 9.793341e+00 1.352903e+01 9.976303e+00 2.526509e+01 1.292772e+01 1.563821e+00 1.407179e+00 1.422329e+00 1.349521e+00 5.026675e-01 3.266456e+00 4.236664e+00 1.936426e+00 1.361816e+00 1.473727e+00 2.247615e+00 1.193894e+00 9.174528e-01
<GCONST> 8.190828e+01
~s "ST_l_2_1"
<MEAN> 25
 9.475344e+00 2.025614e-01 -2.084835e+00 6.421064e-01 -1.725979e+00 -6.523106e+00 -5.107364e+00 -1.128537e+00 -1.103605e+00 -5.426478e+00 -6.392366e+00 -2.339270e+00 1.548436e+00 -2.376962e-01 -4.194668e-01 9.232608e-01 6.496117e-01 -8.903702e-01 -1.323773e+00 -7.285810e-02 -2.761236e-01 -1.543802e+00 -1.526633e+00 -3.155341e-01 8.924792e-01
<VARIANCE> 25
 2.877435e+01 1.346448e+01 1.810854e+01 2.150323e+01 3.162663e+01 4.371695e+01 3.215500e+01 1.860512e+01 2.937298e+01 2.959518e+01 2.414347e+01 1.803710e+01 1.720227e+00 1.711556e+00 1.790069e+00 2.009146e+00 2.742350e+00 3.151244e+00 4.213083e+00 3.013418e+00 3.580690e+00 3.874976e+00 3.081393e+00 1.682251e+00 1.380847e+00
<GCONST> 9.599693e+01
~s "ST_l_3_1"
<MEAN> 25
 1.269750e+01 -1.930671e+00 -3.393232e+00 5.579858e-02 -4.682253e+00 -1.154530e+01 -8.906580e+00 -4.750658e-01 -1.008321e+00 -8.222214e+00 -8.432556e+00 -2.731008e+00 -6.040166e-02 3.382443e-01 2.017944e-01 1.874755e-01 -1.226586e-04 -1.705260e-01 -1.694630e-01 1.150156e-01 2.337348e-01 5.866350e-02 -1.584627e-01 -2.588297e-01 -2.472529e-01
<VARIANCE> 25
 4.590256e+00 9.659445e+00 1.390428e+01 1.901947e+01 1.664989e+01 1.333604e+01 1.823705e+01 1.990975e+01 3.401848e+01 2.799803e+01 3.052709e+01 2.072261e+01 2.451160e-01 1.003845e+00 8.882691e-01 1.215804e+00 1.325120e+00 1.326029e+00 1.493183e+00 1.485558e+00 2.867493e+00 1.958070e+00 2.206980e+00 1.869698e+00 6.100888e-01
<GCONST> 8.260667e+01
~s "ST_l_4_1"
<MEAN> 25
 7.589097e+00 5.499032e+00 7.002726e-01 1.629022e+00 -2.444028e-01 -5.228670e+00 -5.555937e+00 1.015866e+00 2.956324e+00 -2.937509e+00 -8.111630e+00 -7.182617e+00 -9.078614e-01 2.596803e-01 6.803219e-01 6.043228e-02 2.384033e-01 1.060512e+00 8.995910e-01 -6.057356e-02 -2.368848e-01 5.534062e-01 9.164237e-01 4.508133e-01 -6.508092e-01
<VARIANCE> 25
 1.711261e+01 8.505499e+00 1.683822e+01 1.067728e+01 1.476216e+01 4.316981e+01 3.471843e+01 1.192527e+01 1.653806e+01 2.205061e+01 2.618668e+01 2.596746e+01 4.784636e-01 7.553113e-01 7.163426e-01 5.188997e-01 6.785324e-01 8.968506e-01 1.020189e+00 1.092823e+00 9.742079e-01 1.492036e+00 1.557476e+00 1.863366e+00 2.709439e-01
<GCONST> 7.876170e+01
~s "ST_l_4_2"
<MEAN> 25
 1.091208e+01 7.634017e+00 4.210732e+00 3.334070e+00 -5.111742e+00 -1.270894e+01 -1.069151e+01 1.478308e-01 3.153992e+00 -3.140303e+00 -6.411068e+00 -5.216269e+00 -4.988038e-01 3.584622e-02 2.939466e-01 3.393562e-01 4.095420e-01 9.137210e-01 1.279566e+00 6.150864e-01 -2.309367e-01 -2.453410e-01 1.223098e-01 -1.345909e-01 -3.663884e-01
<VARIANCE> 25
 4.550392e+00 1.345680e+01 6.403160e+00 8.488723e+00 1.075447e+01 3.211096e+01 4.132266e+01 1.339463e+01 1.778728e+01 1.883738e+01 8.673748e+00 1.296003e+01 8.591861e-02 9.285163e-01 4.194344e-01 4.947785e-01 5.820736e-01 1.087685e+00 9.890710e-01 1.226207e+00 8.067935e-01 1.359817e+00 6.291440e-01 1.002580e+00 1.247496e-01
<GCONST> 6.993965e+01
~s "ST_y_2_1"
<MEAN> 25
 -4.087169e+00 -2.794384e-01 3.007357e-01 9.382701e-01 1.321755e+00 2.586489e+00 2.804816e+00 1.639825e+00 5.949035e-01 9.874201e-01 2.130011e+00 2.648399e+00 -3.330013e-02 -6.665113e-04 2.332430e-02 4.755805e-02 7.465261e-02 4.445428e-02 -1.675039e-03 -1.546860e-02 -6.920566e-03 -2.149546e-02 1.174602e-02 4.097010e-02 -1.856671e-02
<VARIANCE> 25
 9.888916e-01 7.973803e-01 1.140725e+00 2.261420e+00 3.265584e+00 3.039313e+00 3.199574e+00 3.501728e+00 4.706113e+00 4.723580e+00 4.067156e+00 3.973522e+00 1.974360e-02 5.451180e-02 8.645566e-02 2.391885e-01 3.201588e-01 3.230233e-01 3.405073e-01 4.092322e-01 5.193321e-01 5.422972e-01 4.141876e-01 3.205422e-01 1.074916e-02
<GCONST> 3.448044e+01
~s "ST_y_3_1"
<MEAN> 25
 3.863526e+00 3.540390e+00 1.126277e+00 1.890732e+00 3.201097e+00 1.437863e+00 -3.291182e+00 -2.893578e+00 -9.316667e-02 -2.211789e-01 -1.689691e+00 -1.172941e+00 2.649425e-01 -9.738068e-02 -3.245664e-01 -2.934797e-01 -7.008169e-01 -3.598465e-01 -3.575912e-02 2.808551e-01 8.290251e-02 1.581502e-01 2.575743e-01 -1.371707e-01 1.777959e-01
<VARIANCE> 25
 5.750569e+01 6.832759e+00 9.022745e-01 3.662296e+00 9.119945e+00 1.544754e+01 2.356396e+01 6.299924e+00 3.508540e+00 7.955337e+00 2.252533e+01 1.293954e+01 7.564250e-02 1.145803e-01 7.193135e-02 3.295270e-01 7.010136e-01 9.490449e-01 2.910364e-01 1.708444e-01 2.192752e-01 2.681445e-01 3.555772e-01 9.069617e-01 3.210491e-02
<GCONST> 5.276468e+01
~s "ST_y_4_1"
<MEAN> 25
 3.829911e+00 3.515901e-01 6.631470e-01 4.880159e+00 2.328742e+00 -1.845225e+00 -4.010809e+00 -1.483568e+00 5.621804e-02 -7.309628e-01 -1.729753e+00 -1.998534e+00 4.499049e-01 -1.231917e+00 -5.301519e-01 -7.121165e-02 -4.940189e-01 -1.103905e+00 -6.863225e-01 -3.600092e-01 8.638569e-02 6.167890e-01 1.610407e-01 -5.460861e-01 7.884046e-01
<VARIANCE> 25
 5.320071e+01 9.752092e+00 8.893648e+00 3.599478e+01 7.593274e+00 3.127755e+01 4.529398e+01 1.517727e+01 4.673453e+00 8.542224e+00 1.652019e+01 1.979841e+01 2.680489e-01 1.797075e+00 4.166309e-01 1.846785e+00 1.581810e+00 1.512075e+00 7.806637e-01 1.266543e+00 5.536889e-01 1.432338e+00 1.182513e+00 1.088016e+00 5.617293e-01
<GCONST> 7.875903e+01
~s "ST_b_2_1"
<MEAN> 25
 -4.568866e+00 -1.874924e-01 -1.449273e+00 -2.533894e+00 -1.572541e+00 1.373438e+00 1.373376e+00 1.437964e+00 2.125726e+00 2.152934e+00 1.422618e+00 -3.908353e-01 -2.668474e-01 -3.920606e-02 1.764290e-01 2.253964e-01 2.405453e-01 1.457783e-01 8.959162e-02 8.102343e-02 9.185699e-02 1.325347e-01 1.808596e-01 1.357337e-01 -1.662488e-01
<VARIANCE> 25
 4.779558e+00 3.903230e+00 3.765352e+00 5.659921e+00 6.616531e+00 5.327955e+00 6.486619e+00 8.495814e+00 7.870307e+00 7.398303e+00 7.967089e+00 8.793242e+00 1.329348e-01 1.491302e-01 1.814572e-01 3.720295e-01 3.999518e-01 5.349343e-01 5.667352e-01 8.114085e-01 8.211645e-01 6.472441e-01 6.638511e-01 6.487778e-01 4.518977e-02
<GCONST> 5.431129e+01
~s "ST_b_3_1"
<MEAN> 25
 -4.670462e+00 1.757400e+00 2.078426e+00 1.179792e+00 2.366371e+00 4.814753e+00 3.862249e+00 2.977064e+00 2.598055e+00 3.060385e+00 2.406129e+00 3.694504e-01 4.699041e-01 7.641909e-01 9.764237e-01 1.057053e+00 9.206150e-01 6.699395e-01 2.131547e-01 -1.343016e-01 -2.176390e-01 -4.677430e-01 -6.774164e-01 -6.300941e-01 1.952378e-01
<VARIANCE> 25
 8.616129e+00 1.116790e+01 1.165045e+01 1.077558e+01 1.065211e+01 8.860897e+00 7.765626e+00 7.464932e+00 6.093341e+00 7.140716e+00 8.976685e+00 8.685244e+00 7.670728e-01 1.046297e+00 1.032610e+00 7.820233e-01 5.781232e-01 5.956445e-01 8.518227e-01 9.215965e-01 6.820619e-01 7.236435e-01 1.030019e+00 1.299225e+00 1.785819e-01
<GCONST> 6.820357e+01
~s "ST_b_4_1"
<MEAN> 25
 -1.083740e+00 6.669041e+00 6.574559e+00 4.860379e+00 4.832841e+00 6.699291e+00 4.696079e+00 2.467166e+00 1.712066e+00 8.286097e-01 -8.254378e-01 -3.003876e+00 6.554576e-02 -7.085848e-03 1.488326e-03 6.210209e-02 1.411582e-03 -1.451127e-02 4.044173e-02 -2.579256e-02 -1.602752e-02 -4.194466e-02 -6.791138e-02 -2.360917e-02 5.732033e-02
<VARIANCE> 25
 8.028462e+00 1.274492e+01 1.104949e+01 7.912422e+00 6.828564e+00 7.744549e+00 8.912590e+00 5.810867e+00 5.803150e+00 5.570127e+00 6.621127e+00 9.752472e+00 2.527499e-01 5.041089e-01 3.640918e-01 3.140610e-01 4.267471e-01 5.444333e-01 4.993679e-01 6.322758e-01 4.263183e-01 4.463944e-01 6.112170e-01 6.419794e-01 8.991179e-02
<GCONST> 5.875998e+01
~s "ST_aw_2_1"
<MEAN> 25
 4.890277e+00 1.744655e+00 2.630968e+00 2.842789e+00 -1.392237e+00 -5.573167e-01 6.121255e-01 -4.135886e-01 -2.374500e-01 -7.477759e-01 -1.566316e+00 -2.729802e-01 2.843025e+00 -3.394235e-01 -7.350395e-01 1.093617e-01 -2.798235e+00 -4.371568e+00 -3.377328e+00 -7.542641e-01 8.352153e-01 3.916652e-02 -1.444551e+00 -6.441469e-03 1.704010e+00
<VARIANCE> 25
 2.359846e+01 1.156603e+01 8.461971e+00 1.977433e+01 5.503040e+01 6.009629e+01 1.509423e+01 1.143743e+01 1.612910e+01 2.177443e+01 2.832808e+01 6.855638e+00 2.403898e-01 4.139511e+00 3.576941e-01 1.353696e+00 8.194532e-01 1.968042e+00 9.521294e-01 3.938098e+00 7.452487e-01 1.570142e+00 8.248289e-01 1.355175e+00 1.441688e+00
<GCONST> 8.276517e+01
~s "ST_aw_3_1"
<MEAN> 25
 1.053686e+01 7.041287e-01 6.320918e-01 1.935238e-01 -8.116082e+00 -1.341451e+01 -8.964263e+00 -3.038822e+00 2.231823e+00 1.555879e+00 -1.853491e+00 -8.570558e-01 1.923373e+00 -6.072563e-01 -1.023037e+00 -1.836200e+00 -2.666991e+00 -3.544560e+00 -2.557869e+00 -2.672143e-01 4.669355e-01 1.167937e+00 1.545601e+00 1.613386e-01 1.958461e+00
<VARIANCE> 25
 3.538536e+00 4.944075e+00 1.108932e+01 2.328832e+01 9.543190e+00 2.379462e+01 2.510468e+01 1.785937e+01 2.177211e+01 3.136696e+01 2.225121e+01 8.557461e+00 1.061956e+00 1.114443e+00 1.009682e-01 7.984703e-01 1.448135e+00 4.445733e+00 2.050496e+00 2.788427e+00 6.775045e-01 1.254664e+00 2.031197e+00 6.548402e-01 1.793347e+00
<GCONST> 7.963233e+01
~s "ST_aw_4_1"
<MEAN> 25
 1.083007e+01 1.849863e+00 -1.137885e+00 -3.836539e+00 -1.163751e+01 -1.507930e+01 -7.646742e+00 1.529777e+00 3.087549e+00 7.179239e-01 2.237317e+00 2.168057e+00 -1.631314e-01 3.057852e-01 1.191756e-01 8.519649e-02 3.521278e-01 5.261936e-01 3.142599e-01 1.289062e-01 -1.256091e-01 -2.626911e-01 5.947470e-03 4.929873e-02 -3.042603e-01
<VARIANCE> 25
 1.131432e+00 1.075896e+01 1.566977e+01 1.472989e+01 1.092679e+01 2.549190e+01 2.389065e+01 1.471256e+01 1.451332e+01 1.718645e+01 1.806005e+01 1.024633e+01 1.350427e-01 9.788637e-01 4.455540e-01 8.864051e-01 1.823857e+00 3.146471e+00 1.007553e+00 1.621353e+00 1.946760e+00 1.185742e+00 1.854528e+00 1.065849e+00 3.109135e-01
<GCONST> 7.575451e+01
~s "ST_r_2_1"
<MEAN> 25
 4.951507e+00 2.318721e+00 7.552611e-01 2.901989e-01 1.625523e+00 1.991600e+00 8.736182e-01 -1.189827e+00 -2.168888e+00 -2.903351e+00 -3.669863e+00 -1.980700e+00 1.375465e+00 -8.085923e-01 -1.815038e+00 -1.315280e+00 -5.505707e-01 -5.822632e-01 -8.604980e-01 -7.291428e-01 -8.310567e-01 -8.779574e-01 -2.918667e-01 6.044266e-01 1.079564e+00
<VARIANCE> 25
 3.158224e+01 2.439180e+01 2.549106e+01 2.771240e+01 2.771780e+01 2.868673e+01 2.767128e+01 1.376130e+01 2.043909e+01 2.120865e+01 2.220644e+01 1.358307e+01 2.857056e+00 3.639246e+00 2.827332e+00 4.814153e+00 4.090576e+00 3.679925e+00 4.600527e+00 1.299729e+00 1.981841e+00 2.089222e+00 1.313979e+00 1.007411e+00 2.214436e+00
<GCONST> 9.550444e+01
~s "ST_r_3_1"
<MEAN> 25
 1.165285e+01 1.633931e+00 -6.063243e+00 -4.794044e+00 -8.957990e-01 -1.447696e+00 -3.343079e+00 -3.874591e+00 -6.336029e+00 -7.163137e+00 -4.355274e+00 4.971515e-03 2.583851e-02 -6.536291e-01 -3.952107e-01 -8.212250e-01 -1.088913e+00 -5.687348e-01 -1.928717e-01 -3.645163e-01 -1.502751e-01 3.936279e-01 7.386397e-01 3.775354e-01 5.944604e-01
<VARIANCE> 25
 2.170418e+01 2.706050e+01 1.900731e+01 3.731689e+01 3.677422e+01 2.118132e+01 2.355842e+01 1.382472e+01 2.654575e+01 3.102972e+01 1.644768e+01 1.574789e+01 9.554527e-01 1.734224e+00 2.003596e+00 1.827830e+00 2.088556e+00 1.678641e+00 2.232106e+00 1.386799e+00 1.568093e+00 1.747848e+00 1.978646e+00 1.068078e+00 9.367331e-01
<GCONST> 8.947997e+01
~s "ST_r_4_1"
<MEAN> 25
 1.066861e+01 -2.104378e+00 -5.205378e+00 -6.840946e+00 -7.606270e+00 -7.405464e+00 -4.648457e+00 -1.450519e+00 -1.235642e+00 -2.535490e+00 -9.711977e-01 8.302310e-01 -2.055357e-01 3.830341e-01 3.262242e-01 2.007856e-01 -1.444077e-02 -3.683738e-02 1.588216e-01 4.435998e-01 4.371689e-01 2.126055e-01 8.510740e-02 -2.333510e-02 -3.968057e-01
<VARIANCE> 25
 1.734509e+01 3.562643e+01 1.228645e+01 8.161644e+00 1.074591e+01 1.918156e+01 1.671095e+01 1.785684e+01 2.249080e+01 2.019847e+01 8.787429e+00 1.673878e+01 7.975550e-01 1.617659e+00 1.009884e+00 7.874900e-01 9.794498e-01 1.410381e+00 9.272484e-01 1.086890e+00 1.258876e+00 1.007525e+00 8.234008e-01 1.286593e+00 9.375615e-01
<GCONST> 7.970547e+01
~s "ST_dh_2_1"
<MEAN> 25
 2.526677e+00 3.081697e+00 2.616798e+00 1.773132e+00 4.404491e-01 4.537665e-01 5.484189e-01 -1.329389e+00 -2.489910e+00 -3.425931e+00 -2.274786e+00 -4.951485e-01 4.390468e-01 -4.720123e-01 -4.450389e-01 1.157995e-01 -3.998143e-01 -9.552000e-01 -4.708455e-01 4.734073e-01 1.274661e-01 -9.877214e-01 -8.540732e-01 2.223143e-01 3.252419e-01
<VARIANCE> 25
 2.067577e+01 1.719637e+01 1.489309e+01 1.548358e+01 3.160747e+01 4.701931e+01 1.889024e+01 1.595551e+01 1.115944e+01 2.102475e+01 2.413578e+01 4.561233e+00 2.523349e+00 1.266500e+00 1.503673e+00 1.061989e+00 1.387926e+00 4.107964e+00 1.774336e+00 2.070826e+00 7.043713e-01 4.375039e+00 3.753234e+00 4.502398e-01 1.988011e+00
<GCONST> 8.744220e+01
~s "ST_dh_3_1"
<MEAN> 25
 9.898940e+00 -1.541376e+00 -2.819382e+00 1.980163e+00 -3.154890e+00 -1.007024e+01 -5.334372e+00 3.880604e+00 -1.720953e+00 -1.348965e+01 -1.167513e+01 8.419247e-01 -3.669641e-01 6.532435e-01 -4.732598e-02 -6.059718e-02 7.286273e-01 1.157847e+00 6.468828e-01 -1.600838e-01 -3.121025e-01 1.117992e-01 -2.974923e-02 -2.572016e-01 -6.997257e-01
<VARIANCE> 25
 1.316917e+01 4.715543e+00 1.221001e+01 2.134058e+01 2.810243e+01 2.867927e+01 5.996418e+00 1.279859e+01 9.844729e+00 3.897482e+01 2.209958e+01 7.581549e+00 2.864121e-01 4.190651e-01 7.174439e-01 2.717033e+00 1.589336e+00 2.441783e+00 5.880860e-01 2.432754e+00 1.632377e+00 7.364285e+00 3.138054e+00 1.348900e+00 2.016308e-01
<GCONST> 8.033205e+01
~s "ST_dh_4_1"
<MEAN> 25
 5.583356e+00 2.828768e+00 -2.577225e+00 -1.518612e+00 7.833868e-01 1.447734e+00 8.382999e-01 -1.385184e+00 -4.126089e+00 -6.888001e+00 -6.186747e+00 -1.042123e+00 -1.159635e+00 7.135028e-01 3.887858e-01 -6.650102e-01 4.271462e-01 1.930524e+00 1.215474e+00 -2.559206e-01 -4.933708e-01 1.224883e+00 1.658860e+00 1.383624e-01 -1.005255e+00
<VARIANCE> 25
 2.062610e+01 4.227285e-01 2.639730e+01 3.327557e+01 2.218197e+01 2.330491e+01 9.582060e+00 1.265942e+01 3.091196e+01 2.753455e+01 2.282728e+01 3.701492e+00 3.297659e-01 1.386903e+00 8.032125e-01 7.954770e-01 1.763399e+00 2.056877e+00 8.876880e-01 5.695564e-01 1.228917e+00 4.238403e+00 1.016722e+00 5.909680e-01 2.675742e-01
<GCONST> 7.631876e+01
~s "ST_hh_2_1"
<MEAN> 25
 -1.038255e+00 -2.319829e+00 -2.896095e+00 -3.832754e+00 -3.479985e+00 2.082222e+00 4.837570e+00 1.658737e+00 -1.358545e+00 -1.043823e+00 -9.782601e-01 -1.694755e+00 -1.664308e-01 4.410294e-02 -1.697154e-01 -2.737308e-01 -7.217688e-02 3.095895e-01 2.213355e-01 -1.170245e-03 1.406770e-01 4.667367e-01 2.667191e-01 -6.988505e-03 -2.464673e-01
<VARIANCE> 25
 1.109477e+01 2.327760e+01 6.359347e+00 1.506684e+01 2.481535e+01 1.230730e+01 9.476271e+00 1.497510e+01 2.566346e+01 1.222628e+01 1.172757e+01 1.850211e+01 1.856395e-01 7.586526e-01 7.477221e-01 9.035428e-01 1.175407e+00 7.409261e-01 8.609888e-01 1.402086e+00 1.264666e+00 8.958480e-01 1.257136e+00 1.079808e+00 1.833451e-01
<GCONST> 7.430042e+01
~s "ST_ow_2_1"
<MEAN> 25
 3.354402e+00 4.425527e+00 3.775155e+00 4.147555e+00 1.262092e+00 -1.340407e+00 2.010663e-01 2.699157e+00 4.988898e-01 -2.494715e+00 -2.693695e+00 -3.026849e+00 -8.683531e-01 -4.538857e-01 2.765691e-02 -9.216552e-02 3.713200e-01 9.464568e-01 1.359350e+00 2.773679e-01 -2.170482e-01 1.863363e-01 1.139563e-01 2.851954e-01 -4.109061e-01
<VARIANCE> 25
 2.038499e+01 1.635040e+01 9.200562e+00 1.255500e+01 1.367932e+01 3.374142e+01 1.572219e+01 1.812201e+01 6.808411e+00 1.858831e+01 2.166676e+01 1.224511e+01 4.128703e-01 5.953164e-01 9.558713e-01 5.838544e-01 5.845513e-01 1.055917e+00 1.317072e+00 9.517512e-01 8.973820e-01 6.515765e-01 8.437046e-01 8.130008e-01 2.185488e-01
<GCONST> 7.403635e+01
~s "ST_hh_3_1"
<MEAN> 25
 -7.802466e-01 -2.665225e+00 -5.442973e+00 -5.312461e+00 -3.928418e+00 5.344142e-01 1.574929e+00 5.268996e-01 1.096594e+00 2.699080e+00 1.450602e+00 -3.848325e-01 -7.097892e-02 -1.872013e-02 -2.259891e-01 -3.271369e-01 -3.080937e-01 -3.292890e-01 -3.843368e-01 -8.565612e-02 4.381841e-01 4.578938e-01 2.940569e-01 1.081428e-01 -6.937506e-02
<VARIANCE> 25
 9.614009e+00 2.703832e+01 2.791683e+01 1.995028e+01 1.924213e+01 1.775362e+01 1.002548e+01 1.641887e+01 1.503526e+01 1.065722e+01 1.243527e+01 2.031053e+01 2.160131e-01 4.557536e-01 5.030284e-01 5.246575e-01 6.268049e-01 3.978320e-01 9.112117e-01 1.074836e+00 7.815685e-01 1.004173e+00 6.987877e-01 9.561981e-01 1.338076e-01
<GCONST> 7.165862e+01
~s "ST_k_2_1"
<MEAN> 25
 -5.002662e+00 -1.913507e-01 -3.431478e-01 6.628817e-02 1.391271e+00 3.785556e+00 2.932358e+00 1.303588e+00 3.648902e-01 1.218162e+00 1.616004e+00 4.920698e-01 8.505595e-01 -2.927968e-01 -8.018087e-01 -1.345625e+00 -1.939688e+00 -1.478389e+00 1.569493e-01 1.692262e-01 -1.568650e-01 -1.183703e-01 -2.016451e-01 -4.148294e-01 1.002678e+00
<VARIANCE> 25
 8.355471e+00 5.216716e+00 7.887612e+00 8.418516e+00 8.839412e+00 6.722921e+00 1.482693e+01 1.200764e+01 7.961873e+00 9.245048e+00 9.872627e+00 7.164116e+00 2.170576e+00 1.636589e+00 1.989443e+00 3.129563e+00 4.162600e+00 3.813750e+00 2.733526e+00 1.236723e+00 1.874410e+00 1.687199e+00 1.572881e+00 1.352728e+00 2.089974e+00
<GCONST> 8.146449e+01
~s "ST_ow_3_1"
<MEAN> 25
 3.654642e-01 1.412625e+00 1.862965e+00 1.712061e+00 1.977964e+00 1.767126e+00 3.195726e+00 2.320037e+00 -1.227558e-01 -1.545863e+00 -2.675909e+00 -1.677050e+00 -6.036310e-01 -8.114862e-01 -2.111834e-01 -8.197082e-01 -8.967795e-01 -1.109513e-01 7.098352e-01 -4.456880e-01 -6.716810e-01 2.172689e-01 3.168598e-01 4.871936e-01 1.171272e-02
<VARIANCE> 25
 1.691840e+01 1.422539e+01 3.163249e+01 1.559216e+01 1.380488e+01 2.230623e+01 1.469176e+01 1.022300e+01 8.413691e+00 1.468842e+01 1.971932e+01 2.072189e+01 1.410475e+00 1.660423e+00 2.551750e+00 1.272352e+00 1.477652e+00 3.335890e+00 5.203117e+00 1.859961e+00 2.137792e+00 1.731179e+00 1.604905e+00 1.053367e+00 9.513057e-01
<GCONST> 8.688022e+01
~s "ST_hh_4_1"
<MEAN> 25
 -4.380419e+00 2.294108e+00 4.068819e-01 -1.907707e+00 1.407286e-01 3.851627e+00 2.639592e+00 1.490777e+00 2.799610e+00 4.351822e+00 2.590644e+00 -3.658854e-01 6.701890e-02 -5.153324e-02 -1.178488e-01 7.828719e-03 5.138826e-02 -1.402902e-02 1.009086e-02 2.152839e-02 4.318760e-02 8.024514e-02 8.989842e-02 4.666267e-02 4.771456e-02
<VARIANCE> 25
 1.263636e+00 1.287235e+00 2.301894e+00 2.187196e+00 1.970688e+00 3.241077e+00 3.341990e+00 3.165809e+00 3.025695e+00 3.087553e+00 3.699267e+00 4.230730e+00 9.645998e-02 1.281304e-01 1.806046e-01 1.904430e-01 1.732763e-01 3.286540e-01 3.864694e-01 3.394081e-01 3.260078e-01 3.464659e-01 4.371391e-01 3.381393e-01 5.276667e-02
<GCONST> 3.755353e+01
~s "ST_k_3_1"
<MEAN> 25
 2.937744e+00 -6.738529e-01 -5.211489e+00 -7.589197e+00 -9.679005e+00 -5.097192e+00 2.840475e+00 9.403068e-01 -1.954721e-01 1.437643e+00 5.263758e-01 -2.298512e+00 1.576736e+00 -6.226522e-01 -6.689945e-01 -1.502256e+00 -2.351332e+00 -1.895706e+00 1.149372e-01 -6.703139e-02 -3.396550e-01 -3.354059e-01 -7.167287e-01 -1.190855e+00 2.280853e+00
<VARIANCE> 25
 2.553283e+01 2.497380e+01 2.681226e+01 4.514574e+01 6.434048e+01 2.674572e+01 4.919217e+01 3.873154e+01 4.191737e+01 2.297638e+01 2.441806e+01 2.058664e+01 3.331992e+00 1.568262e+00 2.984907e+00 3.390258e+00 5.332877e+00 3.076713e+00 3.186313e+00 2.009121e+00 3.080413e+00 2.535203e+00 2.170724e+00 1.558306e+00 3.273497e+00
<GCONST> 1.006787e+02
~s "ST_ow_4_1"
<MEAN> 25
 1.624067e+00 2.536516e+00 2.826885e+00 1.435102e+00 -2.667527e+00 -4.238204e+00 -4.482074e-01 7.518455e-01 3.452390e-01 -4.590115e-01 -1.035115e+00 -6.538472e-01 -8.702652e-01 -6.595532e-01 4.684645e-01 -3.270268e-01 -6.682659e-01 1.280180e-01 1.080533e+00 -3.800688e-01 -6.686943e-01 6.456210e-01 7.101233e-01 3.379293e-01 -1.091371e-01
<VARIANCE> 25
 2.679257e+01 1.290575e+01 2.854298e+01 1.604483e+01 1.872025e+01 7.741280e+01 9.275353e+01 1.364339e+01 2.666212e+01 1.445618e+01 1.748734e+01 1.126218e+01 1.382439e+00 1.706702e+00 1.342673e+00 9.565958e-01 1.331589e+00 2.948813e+00 5.069916e+00 1.498901e+00 2.135068e+00 1.791597e+00 1.668691e+00 1.185575e+00 4.699527e-01
<GCONST> 8.935207e+01
~s "ST_k_4_1"
<MEAN> 25
 8.061932e-01 -2.972199e+00 -2.355581e+00 -4.632661e+00 -6.766729e+00 -2.473030e+00 4.783199e+00 3.456233e+00 -1.133735e-01 3.544210e-01 6.709057e-01 -2.119184e+00 5.233222e-01 1.932483e-02 1.156473e+00 2.132715e+00 1.806540e+00 2.912586e-01 -1.102872e+00 -3.068717e-01 2.567647e-02 -6.894015e-01 -4.846393e-01 2.070219e-01 1.335926e-01
<VARIANCE> 25
 1.876563e+01 2.064944e+01 2.963783e+01 3.194471e+01 4.818119e+01 3.202067e+01 3.308779e+01 2.133834e+01 4.120685e+01 2.876050e+01 2.947080e+01 2.037833e+01 2.171007e+00 2.529158e+00 1.731469e+00 2.550793e+00 2.892050e+00 1.808548e+00 3.984855e+00 1.335048e+00 1.694049e+00 1.914178e+00 1.596729e+00 1.634761e+00 8.397147e-01
<GCONST> 9.461177e+01
~s "ST_jh_2_1"
<MEAN> 25
 -1.892860e+00 6.027329e+00 8.040144e+00 4.902815e+00 4.807919e+00 5.509051e+00 2.141671e+00 1.092738e+00 1.016417e+00 4.307339e-01 -8.945325e-01 -2.575819e+00 -1.469043e-01 -1.650535e-01 2.860791e-01 5.399857e-02 -2.454105e-01 5.334102e-02 1.639367e-01 -1.334719e-01 6.892771e-02 4.653563e-01 1.581077e-01 -3.111230e-01 -7.437555e-03
<VARIANCE> 25
 2.711085e+00 2.370965e+01 5.920135e+00 2.807738e+01 4.635061e+00 1.116615e+01 8.955988e+00 9.887763e+00 6.797869e+00 7.058754e+00 7.541201e+00 9.046107e+00 1.976523e-01 7.062789e-01 8.280187e-01 7.177848e-01 6.444802e-01 1.280497e+00 9.652122e-01 6.137500e-01 6.295983e-01 1.572651e+00 7.040392e-01 1.606628e+00 1.180817e-01
<GCONST> 6.651921e+01
~s "ST_jh_3_1"
<MEAN> 25
 -1.101806e+00 1.759834e-01 5.771395e+00 5.340653e+00 1.982057e+00 1.814295e+00 2.196801e+00 -7.454550e-01 1.315264e+00 4.728167e+00 3.375848e+00 -3.546151e-01 -1.838402e-02 -3.666039e+00 4.008711e-01 1.529522e+00 -8.195992e-02 -1.548396e+00 -7.908102e-01 -7.328727e-01 -2.050708e-01 1.752740e-01 3.507474e-01 6.122456e-01 1.776581e+00
<VARIANCE> 25
 2.691901e+00 4.539137e+01 6.506687e+00 2.684102e+01 9.053755e+00 9.867438e+00 6.106861e+00 2.737875e+01 5.762801e+00 3.821705e+00 8.206298e+00 9.380324e+00 2.635338e+00 2.144730e+00 4.129138e+00 2.767125e+00 2.039353e+00 3.825092e-01 4.569501e+00 4.980303e+00 2.736795e+00 1.808963e+00 1.187888e+00 3.349084e-01 7.859647e-01
<GCONST> 8.044390e+01
~s "ST_jh_4_1"
<MEAN> 25
 4.408883e-02 -8.280874e+00 8.994956e+00 1.576729e+01 7.055696e+00 -1.921910e+00 -4.749873e+00 -3.642655e+00 -9.419889e-01 -1.875404e+00 -3.370867e+00 -1.388669e+00 4.205101e-01 1.350050e-01 -3.966868e-01 2.470524e-01 3.341509e-01 -2.167754e-01 -6.383130e-01 -2.849405e-01 -2.578680e-01 -7.061061e-01 -5.506538e-01 -1.691792e-02 8.683392e-02
<VARIANCE> 25
 2.609515e+01 3.453574e+01 2.688816e+01 1.233693e+01 1.753878e+01 8.624082e+00 3.993840e+01 2.463695e+01 1.294806e+01 1.632829e+01 1.449853e+01 1.190669e+01 2.129660e+00 4.298079e+00 3.673327e+00 1.798701e+00 1.245051e+00 1.560611e+00 3.716929e+00 2.220306e+00 8.397325e-01 1.397465e+00 2.745831e+00 8.049706e-01 8.085516e-01
<GCONST> 8.858821e+01
~s "ST_uw_2_1"
<MEAN> 25
 2.752286e+00 -4.280949e+00 -1.434186e+00 -7.488376e-01 2.778784e+00 1.267626e+00 -9.677352e-01 -3.935823e+00 -4.269051e+00 9.699652e-01 2.210528e+00 -1.480693e+00 1.252982e+00 9.682841e-01 4.733873e-01 1.989148e-01 1.038392e-01 -4.399207e-01 -8.265530e-01 -5.541396e-01 -4.338602e-01 -6.784163e-01 -6.177502e-01 -4.325045e-01 6.406056e-01
<VARIANCE> 25
 2.772020e+01 7.785635e+01 1.571389e+01 1.190418e+01 5.271175e+01 4.148820e+01 3.078920e+01 2.191836e+01 3.941500e+01 5.147634e+01 2.905595e+01 1.508096e+01 8.952262e-01 6.349874e+00 2.201694e+00 1.607493e+00 2.533517e+00 5.701905e+00 5.754441e+00 3.045433e+00 3.638548e+00 4.792868e+00 2.572634e+00 1.964503e+00 1.369910e+00
<GCONST> 1.000874e+02
~s "ST_n_2_1"
<MEAN> 25
 9.675769e+00 3.620180e+00 -2.896632e+00 -1.066692e+00 -1.111940e-01 -3.030179e+00 -2.842783e+00 3.097022e-01 -2.745600e+00 -5.910093e+00 -3.043733e+00 -5.616583e-01 -6.988203e-01 8.972585e-01 7.222225e-01 1.499396e-01 9.969555e-01 2.787423e+00 1.422004e+00 -1.384008e+00 -5.943490e-01 9.303415e-01 9.000872e-02 -1.317220e+00 -7.978136e-01
<VARIANCE> 25
 6.773026e+00 8.559237e+00 1.233578e+01 2.409924e+01 3.668793e+01 3.725864e+01 2.057365e+01 2.068505e+01 1.613682e+01 1.684050e+01 1.630865e+01 2.354225e+01 3.299128e-01 9.099373e-01 8.677469e-01 2.759305e+00 3.138103e+00 1.990998e+00 2.438647e+00 1.615428e+00 1.400659e+00 1.084423e+00 1.176800e+00 1.709763e+00 1.769103e-01
<GCONST> 8.278885e+01
~s "ST_uw_3_1"
<MEAN> 25
 1.054769e+01 8.186048e+00 3.945596e+00 1.682224e+00 -1.582578e+00 -5.638489e+00 -8.686557e+00 -5.516581e+00 -5.315647e-01 -1.078553e+00 -3.702067e+00 -5.493197e+00 4.618123e-03 6.763990e-01 5.979589e-01 3.206508e-01 -6.301213e-01 -1.693790e+00 -1.431003e+00 -1.048685e-01 7.790490e-01 8.630490e-01 3.223935e-01 -3.051533e-02 -2.100936e-01
<VARIANCE> 25
 1.102485e+01 9.162552e+00 1.205353e+01 1.003770e+01 7.837128e+00 2.481810e+01 2.534411e+01 7.932987e+00 7.452668e+00 9.779572e+00 8.031040e+00 8.231133e+00 2.018713e-01 5.716406e-01 4.184932e-01 8.576968e-01 9.469457e-01 1.286291e+00 1.092860e+00 1.061184e+00 1.234331e+00 1.216148e+00 7.360545e-01 5.211062e-01 2.204581e-01
<GCONST> 6.950942e+01
~s "ST_n_3_1"
<MEAN> 25
 5.857231e+00 6.551461e+00 1.924292e+00 2.493846e+00 5.186484e+00 6.038101e+00 8.373551e-01 -3.264765e+00 -2.755415e+00 -1.196796e+00 -2.747025e+00 -5.112753e+00 -5.627668e-01 1.952460e-01 5.747852e-01 3.117893e-01 2.053390e-01 3.479648e-01 3.979069e-01 3.565784e-01 4.197789e-01 4.714607e-01 2.482800e-01 1.656371e-01 -3.997167e-01
<VARIANCE> 25
 5.269897e+00 3.375183e+00 7.049871e+00 6.588116e+00 1.048460e+01 8.817017e+00 7.205091e+00 8.088546e+00 7.811906e+00 8.707542e+00 5.758555e+00 7.141405e+00 1.481997e-01 1.940367e-01 3.704709e-01 2.929967e-01 4.525201e-01 5.713277e-01 6.089333e-01 7.328432e-01 6.221811e-01 5.498340e-01 6.184164e-01 6.527702e-01 6.709833e-02
<GCONST> 5.658148e+01
~s "ST_uw_4_1"
<MEAN> 25
 7.187984e+00 8.272073e+00 5.855490e+00 3.346841e+00 -2.404422e+00 -6.266799e+00 -6.445992e+00 -2.748250e+00 6.796793e-01 1.420022e+00 -2.224240e+00 -4.158842e+00 -8.450463e-01 -9.870641e-01 -4.654122e-01 -5.905621e-02 4.946466e-01 1.479770e+00 2.003772e+00 1.238921e+00 9.251656e-04 -5.121063e-01 -3.108454e-01 -1.423523e-01 -3.081689e-01
<VARIANCE> 25
 1.497731e+01 1.451618e+01 1.090888e+01 7.412489e+00 1.175093e+01 2.588895e+01 4.156153e+01 3.501651e+01 1.569820e+01 1.519924e+01 1.253150e+01 9.583296e+00 5.965594e-01 1.507050e+00 1.269926e+00 1.227770e+00 2.591933e+00 1.666865e+00 2.314449e+00 1.682177e+00 1.163542e+00 2.289526e+00 2.454620e+00 3.126464e+00 4.315559e-01
<GCONST> 8.432294e+01
~s "ST_n_4_1"
<MEAN> 25
 -1.586599e+00 4.041004e+00 2.706554e+00 1.458293e+00 2.719516e+00 5.349844e+00 4.036881e+00 1.645621e+00 7.933667e-01 1.468303e+00 9.520200e-01 -7.870238e-01 -8.039764e-01 -6.773278e-01 -4.911890e-01 -5.361598e-01 -6.555228e-01 -5.163927e-01 -3.288323e-02 2.208628e-01 1.185814e-01 5.268447e-02 2.931041e-01 4.160434e-01 -4.027169e-01
<VARIANCE> 25
 1.029038e+01 9.554594e+00 1.096793e+01 1.080928e+01 1.336728e+01 1.397204e+01 1.320668e+01 9.587656e+00 8.479777e+00 8.539882e+00 8.926626e+00 7.491350e+00 4.232759e-01 5.361010e-01 9.890414e-01 7.353194e-01 8.290575e-01 1.052371e+00 9.869683e-01 9.945448e-01 8.245937e-01 8.929771e-01 7.887747e-01 8.338606e-01 1.640038e-01
<GCONST> 6.937730e+01
~s "ST_d_2_1"
<MEAN> 25
 5.107294e+00 5.044571e+00 1.971266e+00 1.681689e+00 9.761836e-01 1.492959e+00 7.682298e-01 -5.750082e-01 -2.048372e+00 -2.512690e+00 -2.400392e+00 -1.699057e+00 -1.029916e+00 1.225031e+00 1.495520e+00 8.740154e-01 1.083288e+00 1.515836e+00 8.420104e-01 3.157122e-01 2.522471e-01 3.106214e-01 1.938935e-01 -5.019607e-01 -1.102767e+00
<VARIANCE> 25
 3.686127e+01 1.297016e+01 1.901801e+01 2.630595e+01 2.794071e+01 2.856297e+01 1.984780e+01 2.300217e+01 2.152428e+01 3.367780e+01 1.712804e+01 1.590802e+01 1.661023e+00 1.603219e+00 9.934366e-01 1.387081e+00 1.417371e+00 2.414341e+00 2.294163e+00 2.021429e+00 1.110747e+00 1.952268e+00 1.943176e+00 2.143525e+00 1.222921e+00
<GCONST> 8.979785e+01
~s "ST_d_3_1"
<MEAN> 25
 -4.137260e-01 7.355870e+00 7.089838e+00 5.289775e+00 5.333496e+00 6.380617e+00 4.003173e+00 8.441867e-01 -1.043847e+00 -1.164578e+00 -1.432706e+00 -2.873350e+00 -4.528500e-01 -2.140746e-01 -4.838723e-03 4.822218e-02 1.079952e-01 2.115371e-01 2.680967e-01 1.436806e-01 2.506690e-02 1.024252e-01 2.122840e-01 1.257447e-01 -2.364934e-01
<VARIANCE> 25
 4.915788e+00 2.998669e+00 3.352173e+00 6.010340e+00 6.778862e+00 6.290756e+00 6.537182e+00 5.687673e+00 7.789535e+00 9.946275e+00 6.336205e+00 9.558358e+00 3.602347e-01 3.288544e-01 4.112330e-01 3.977289e-01 3.740486e-01 4.301771e-01 7.573521e-01 7.314907e-01 4.917382e-01 7.038745e-01 5.468681e-01 6.324744e-01 1.310454e-01
<GCONST> 5.694694e+01
~s "ST_d_4_1"
<MEAN> 25
 -3.686924e+00 -6.439092e-01 7.128947e-01 -8.907014e-01 -8.763795e-01 3.218169e+00 4.210013e+00 6.926382e-01 1.581961e-01 8.677313e-01 5.873206e-01 7.896723e-01 -1.423359e-01 -6.983786e-01 -4.451092e-01 -4.323297e-01 -3.934758e-01 -3.120949e-01 -7.081138e-02 -6.063163e-02 1.057609e-01 1.366435e-01 -2.162079e-02 1.251709e-01 2.221520e-01
<VARIANCE> 25
 1.124633e+01 3.363956e+01 1.361541e+01 1.492464e+01 1.887780e+01 1.222787e+01 1.031049e+01 1.425405e+01 2.065950e+01 2.161126e+01 1.034872e+01 9.547882e+00 6.923699e-01 4.190042e+00 1.563815e+00 1.533662e+00 1.693770e+00 1.546993e+00 1.255343e+00 1.194336e+00 1.432612e+00 1.374750e+00 1.180908e+00 8.742387e-01 1.832575e+00
<GCONST> 8.294685e+01
~s "ST_th_2_1"
<MEAN> 25
 -1.114824e-01 -1.771217e+00 -1.363069e+00 -3.249296e+00 -2.750717e+00 3.604203e-01 2.177946e+00 -1.565213e+00 -2.695632e+00 -9.795223e-01 1.846653e+00 2.507907e+00 -4.823421e-01 -1.385386e-01 -5.593877e-02 -5.477704e-02 3.896914e-02 2.614816e-01 2.729827e-01 5.202480e-01 9.429925e-02 1.167649e-01 5.286462e-01 7.304329e-02 -4.922819e-01
<VARIANCE> 25
 1.568334e+01 2.339905e+01 9.725393e+00 9.429209e+00 9.173625e+00 1.280190e+01 1.626411e+01 1.327424e+01 1.228096e+01 1.101289e+01 1.154820e+01 9.080299e+00 1.807683e+00 1.747616e+00 1.219640e+00 1.332341e+00 9.203613e-01 1.280403e+00 1.059077e+00 1.213841e+00 1.593339e+00 1.309496e+00 1.523976e+00 5.147783e-01 2.285591e+00
<GCONST> 7.944180e+01
~s "ST_th_3_1"
<MEAN> 25
 1.078821e+01 1.720654e+00 -5.985407e+00 -8.192961e+00 -8.411000e+00 -2.148404e+00 2.030501e+00 2.879900e+00 3.163219e+00 1.378353e+00 -2.575896e+00 -2.825260e+00 -5.277460e-01 2.605074e-01 2.396051e-01 8.063246e-02 2.251467e-01 3.421566e-01 2.022247e-01 3.656047e-01 3.157877e-01 1.120251e-01 -2.187135e-01 -3.448047e-01 -5.456985e-01
<VARIANCE> 25
 4.721125e+01 1.118635e+01 1.051675e+01 9.447617e+00 2.110722e+01 2.507813e+01 2.481063e+01 1.755045e+01 1.193220e+01 8.761766e+00 1.194000e+01 1.233101e+01 3.861237e-01 5.282499e-01 4.591426e-01 4.814511e-01 6.209418e-01 6.956097e-01 1.067306e+00 9.930459e-01 4.738453e-01 8.099993e-01 6.131427e-01 7.421061e-01 3.311032e-01
<GCONST> 7.207380e+01
~s "ST_th_4_1"
<MEAN> 25
 -2.589751e+00 1.117635e+00 -1.532896e+00 -3.517826e+00 -3.441604e+00 2.072722e+00 3.831575e+00 3.315961e+00 9.924677e-01 8.196301e-01 7.334570e-01 -5.904143e-01 -2.542568e-01 -4.617562e-02 1.305277e-01 2.223474e-01 1.977340e-01 -2.326106e-02 -1.890059e-01 -5.710826e-02 1.971571e-01 1.843176e-01 1.544047e-02 -2.282752e-02 -1.595596e-01
<VARIANCE> 25
 5.129065e+00 2.078249e+00 4.746048e+00 8.205642e+00 1.096358e+01 5.074428e+00 5.029389e+00 8.075263e+00 8.535193e+00 1.123404e+01 1.385147e+01 1.079680e+01 1.002746e-01 1.741411e-01 2.245556e-01 2.301841e-01 4.125071e-01 5.127066e-01 4.805166e-01 6.824314e-01 5.292488e-01 5.631042e-01 7.024418e-01 6.992630e-01 5.433122e-02
<GCONST> 5.475625e+01
~s "ST_ay_2_1"
<MEAN> 25
 9.071383e+00 -5.673726e+00 -4.598216e+00 -5.531464e+00 -6.888968e+00 -7.003005e+00 -3.906183e+00 -2.402406e+00 -2.087094e+00 -1.422127e+00 1.975723e+00 4.551049e+00 7.822595e-01 1.604870e-01 -4.893477e-01 9.483561e-01 1.276315e+00 5.197486e-01 -8.640212e-01 -1.795167e+00 -1.941450e+00 -1.139154e+00 5.434596e-01 1.423502e+00 -3.273219e-01
<VARIANCE> 25
 1.192111e+01 8.014839e+00 1.241118e+01 1.106983e+01 1.547000e+01 1.868101e+01 6.692065e+00 2.646590e+01 2.503471e+01 1.695595e+01 1.310062e+01 1.797408e+01 1.752926e+00 7.424554e-01 7.291246e-01 9.264985e-01 2.223925e+00 2.176983e+00 1.543960e+00 2.455121e+00 1.106685e+00 1.282206e+00 9.300438e-01 1.676622e+00 6.544659e-01
<GCONST> 8.093628e+01
~s "ST_ay_3_1"
<MEAN> 25
 1.030940e+01 -3.203961e+00 -4.856509e+00 6.237758e+00 6.362892e+00 -4.726461e+00 -9.137102e+00 -7.351731e+00 -8.231051e+00 -6.495512e+00 -6.927545e-01 4.520850e+00 -3.889188e-01 7.588873e-01 9.358200e-01 2.247989e+00 1.859800e+00 -4.094448e-02 -2.713143e-01 7.485435e-01 -1.444132e-02 -6.011967e-01 -1.130978e+00 -1.257060e+00 -1.053303e+00
<VARIANCE> 25
 2.897018e+00 3.502637e+00 8.270025e+00 3.282280e+01 1.798323e+01 1.068804e+01 7.031448e+00 1.171362e+01 7.124290e+00 9.200699e+00 8.591865e+00 1.286099e+01 4.649878e-01 3.199202e-01 1.442680e+00 1.323901e+00 1.707063e+00 1.293211e+00 1.309188e+00 9.149520e-01 1.133658e+00 8.393005e-01 6.129456e-01 8.930860e-01 2.242618e-01
<GCONST> 6.999225e+01
~s "ST_ay_4_1"
<MEAN> 25
 4.231780e+00 1.178068e+00 2.644786e+00 8.751721e+00 8.210854e+00 8.118901e-01 -5.636968e+00 -3.915256e+00 -3.987935e+00 -3.507437e+00 -1.154746e+00 4.357413e-01 -2.032426e+00 6.496773e-01 5.553234e-01 -2.059207e+00 -1.526713e+00 1.301643e+00 1.712235e+00 6.638101e-01 9.850249e-01 1.390709e+00 1.065705e+00 3.024336e-01 -1.424523e+00
<VARIANCE> 25
 1.493209e+01 8.213751e+00 1.037191e+01 3.954097e+01 2.734368e+01 1.534576e+01 2.151005e+01 1.002859e+01 9.032327e+00 1.303103e+01 1.129993e+01 1.057259e+01 1.501002e+00 1.390669e+00 1.606452e+00 3.282125e+00 2.457805e+00 1.850846e+00 2.024616e+00 8.823080e-01 7.660244e-01 7.813258e-01 9.380144e-01 1.111301e+00 1.244661e+00
<GCONST> 8.197781e+01
~s "ST_g_2_1"
<MEAN> 25
 1.359206e+01 1.697837e+00 -6.931143e+00 -9.586169e-01 4.463257e+00 -1.146701e+00 -5.818368e+00 -4.713603e+00 -5.877865e+00 -7.467806e+00 -3.400849e+00 1.307001e+00 4.950556e-01 -5.851601e-02 -7.365985e-01 -8.321226e-01 -6.233222e-01 -7.451813e-01 -6.145734e-01 1.594426e-01 5.672131e-01 3.613768e-01 3.472501e-01 4.219841e-01 3.228191e-01
<VARIANCE> 25
 2.505141e+01 5.845609e+00 1.908190e+01 2.465201e+01 2.401527e+01 1.865491e+01 1.734803e+01 1.219392e+01 1.502106e+01 1.680498e+01 8.656357e+00 9.902669e+00 5.076987e-01 8.871718e-01 1.295007e+00 1.229497e+00 1.727469e+00 1.378279e+00 1.525153e+00 2.143512e+00 1.243960e+00 1.043971e+00 8.108360e-01 1.043612e+00 3.654034e-01
<GCONST> 7.933574e+01
~s "ST_g_3_1"
<MEAN> 25
 1.386489e+01 1.261066e+00 -8.386167e+00 -4.560370e+00 -3.790554e+00 -8.814811e+00 -5.763759e+00 7.676925e-01 -1.731865e+00 -3.509775e+00 1.366770e-01 2.912685e+00 -5.851532e-01 8.800805e-01 1.188259e+00 3.991161e-01 -1.631421e-01 3.782629e-01 3.437451e-01 1.375064e-01 2.243223e-01 2.791566e-01 -7.801331e-02 -5.717888e-01 -7.084834e-01
<VARIANCE> 25
 2.301865e+01 1.898683e+01 2.765007e+01 1.031115e+01 1.487633e+01 1.749809e+01 9.557564e+00 9.707095e+00 1.187809e+01 8.083702e+00 4.421200e+00 1.649626e+01 1.165252e+00 1.472715e+00 2.353163e+00 6.411589e-01 1.074031e+00 2.033314e+00 1.343701e+00 1.206134e+00 6.184728e-01 7.114660e-01 6.671628e-01 1.120057e+00 7.787840e-01
<GCONST> 7.747893e+01
~s "ST_el_2_1"
<MEAN> 25
 9.841561e+00 -1.080619e-01 -9.898719e-01 -2.808400e+00 -6.493110e+00 -1.054461e+01 -6.141495e+00 -3.961469e-01 -6.702895e-01 -2.255097e+00 -4.664249e-01 1.723593e+00 1.483008e+00 9.215826e-02 -1.228318e+00 1.594899e-01 -6.709352e-01 -2.237988e+00 -1.243944e+00 8.534132e-01 1.213092e+00 -1.336409e-01 -5.656000e-01 -3.060589e-01 5.643219e-01
<VARIANCE> 25
 9.512451e+00 4.902044e+01 3.552040e+01 2.661807e+01 1.477100e+01 3.453751e+01 2.979680e+01 4.782100e+00 2.207455e+01 4.447195e+01 4.583012e+01 1.738048e+01 1.738757e+00 1.565858e+00 1.234224e+00 7.512946e-01 1.307633e+00 6.891473e+00 4.317377e+00 3.821171e-01 1.232265e+00 1.973904e+00 8.560098e-01 4.125791e-01 1.930581e+00
<GCONST> 8.783813e+01
~s "ST_g_4_1"
<MEAN> 25
 2.409229e+00 8.561035e+00 7.287347e+00 5.212275e+00 4.448793e+00 4.626864e+00 1.645282e+00 -5.672356e-02 -9.580551e-01 -1.405651e+00 -1.826294e+00 -2.940163e+00 -4.085269e-01 9.122360e-02 5.141476e-01 4.687050e-01 4.050828e-01 4.795304e-01 3.638344e-01 5.411769e-02 -1.187181e-02 1.419201e-02 -1.746096e-02 5.421963e-02 -2.568880e-01
<VARIANCE> 25
 1.326239e+01 9.235306e+00 8.119312e+00 1.500909e+01 1.656257e+01 1.425205e+01 9.155223e+00 1.122814e+01 8.742252e+00 6.196471e+00 5.424942e+00 7.456157e+00 9.607254e-01 9.375423e-01 1.460771e+00 1.004548e+00 8.404096e-01 1.129025e+00 1.352786e+00 1.145102e+00 1.000447e+00 8.364552e-01 7.989219e-01 8.441889e-01 3.652683e-01
<GCONST> 7.243175e+01
~s "ST_el_3_1"
<MEAN> 25
 9.530222e+00 -6.224836e-01 -3.296232e+00 -1.529299e+00 -6.084147e+00 -1.145526e+01 -5.712433e+00 1.305167e+00 -2.931190e-01 -5.326814e+00 -2.022415e+00 2.339398e+00 6.953220e-02 -1.760121e-02 -1.061408e-01 3.496330e-01 3.755548e-01 -1.654083e-01 -2.920183e-01 2.147421e-01 1.259621e-01 -5.588439e-01 -7.652857e-01 -3.395784e-01 -5.346982e-02
<VARIANCE> 25
 3.469507e+01 5.280699e+00 1.493572e+01 2.926184e+01 7.843147e+00 4.408492e+01 2.618383e+01 1.399008e+01 2.030279e+01 7.407060e+01 7.199983e+01 2.258750e+01 1.371740e+00 6.954706e-01 1.360977e+00 1.546425e+00 1.083797e+00 2.048854e+00 1.144849e+00 1.577541e+00 2.616750e+00 3.052683e+00 2.700799e+00 1.522355e+00 1.118894e+00
<GCONST> 8.938673e+01
~s "ST_zh_2_1"
<MEAN> 25
 1.255993e+00 -6.333543e+00 5.441196e+00 1.116749e+01 7.356445e+00 1.387981e+00 -3.753778e+00 -5.633238e+00 -2.804035e+00 -7.219427e-01 -2.117962e+00 -3.184223e-02 -6.360057e-01 -6.191134e-01 7.713254e-01 6.807199e-02 -3.415185e-01 7.362707e-01 3.711126e-01 -3.561526e-01 4.734204e-01 7.287566e-01 -1.854027e-01 -2.578093e-01 -3.929596e-02
<VARIANCE> 25
 1.950119e+01 2.813940e+01 3.190885e+01 3.069877e+01 9.737644e+00 9.384433e+00 9.102762e+00 1.575640e+01 2.525047e+01 2.117134e+01 1.117432e+01 1.694413e+01 1.130620e+00 9.259104e-01 1.940265e+00 3.831887e-01 8.086115e-01 9.586188e-01 8.191721e-01 1.077987e+00 1.313665e+00 9.795130e-01 7.481521e-01 3.819039e-01 5.008306e-02
<GCONST> 7.552322e+01
~s "ST_el_4_1"
<MEAN> 25
 7.485566e+00 4.532977e+00 5.852067e-01 3.234887e+00 1.290136e+00 -5.176272e+00 -5.293021e+00 1.947293e+00 3.438299e+00 -3.978486e+00 -8.679209e+00 -6.143776e+00 -7.136509e-01 1.287520e-01 3.558983e-01 -2.997813e-02 2.862984e-01 9.688126e-01 5.809267e-01 -2.561019e-01 -1.075795e-01 7.107277e-01 6.356155e-01 6.074208e-02 -5.043676e-01
<VARIANCE> 25
 2.257388e+01 6.524576e+00 1.146021e+01 5.094218e+00 1.185194e+01 4.684618e+01 3.108072e+01 1.212669e+01 9.056902e+00 5.182550e+01 4.106516e+01 1.228763e+01 2.036882e-01 5.062568e-01 5.601231e-01 4.411552e-01 6.564212e-01 6.662070e-01 1.121571e+00 8.738080e-01 1.033262e+00 1.032046e+00 1.329966e+00 1.092536e+00 7.649958e-02
<GCONST> 7.298314e+01
~s "ST_zh_3_1"
<MEAN> 25
 2.447225e-01 -8.365135e+00 4.876022e+00 1.001560e+01 3.811176e+00 4.283423e-01 -2.387637e+00 -4.463550e+00 -1.290536e+00 -1.930225e+00 -3.858096e+00 1.254405e-02 1.134696e+00 9.934607e-01 -1.720139e+00 -1.197126e+00 -5.344832e-02 -1.145828e+00 -5.491235e-01 3.425805e-01 -6.407229e-01 -1.225989e+00 -8.120748e-02 4.915398e-01 1.317082e-01
<VARIANCE> 25
 3.504450e+01 4.860822e+01 4.029526e+01 2.473792e+01 1.804924e+01 1.890948e+01 1.351418e+01 2.203315e+01 3.250990e+01 1.617729e+01 1.054022e+01 7.685936e+00 3.902925e+00 6.338365e+00 2.672850e+00 1.809396e+00 1.033082e+00 1.416273e+00 9.413220e-01 1.371243e+00 2.512203e+00 2.976975e+00 3.872274e-01 7.287416e-01 1.127221e-01
<GCONST> 8.646507e+01
~s "ST_zh_4_1"
<MEAN> 25
 -3.335964e+00 -1.437851e+01 -1.956927e+00 2.307734e+00 6.188107e-01 -7.163184e-01 -7.897803e-01 -7.400073e-01 5.363173e-01 -1.914279e+00 -3.208227e+00 1.733592e+00 2.910493e-01 5.845391e-01 -6.097087e-01 -6.321840e-01 -5.165038e-01 -3.636207e-01 -2.110435e-01 2.946598e-01 5.786561e-02 -4.313408e-01 -2.226004e-02 1.325874e-01 -1.807949e-01
<VARIANCE> 25
 5.776297e+01 9.397502e+01 1.443028e+01 1.251803e+01 1.370290e+01 2.434406e+01 4.884351e+01 1.279382e+01 3.050204e+01 3.136621e+01 1.017531e+01 6.092266e+00 4.312452e-01 2.379472e+00 1.088348e+00 1.051147e+00 9.967496e-01 1.394396e+00 9.402280e-01 6.513360e-01 9.842004e-01 1.012716e+00 9.599461e-01 7.415743e-01 4.104058e-01
<GCONST> 8.174622e+01
~s "ST_t_2_1"
<MEAN> 25
 -3.620281e+00 1.073333e+00 1.291966e+00 -4.458389e-01 -4.546011e-01 1.397492e+00 9.405247e-01 -5.007989e-01 9.906698e-04 1.433628e+00 1.168971e+00 4.712847e-01 -1.608500e-01 -2.350523e-01 -9.734903e-02 -1.627261e-02 1.201940e-01 1.797656e-01 2.040059e-01 6.475239e-02 6.277744e-02 1.626615e-02 -5.461890e-02 -4.543460e-02 -7.737592e-03
<VARIANCE> 25
 6.631772e+00 1.081959e+01 8.019361e+00 8.684826e+00 1.235798e+01 1.372087e+01 1.237670e+01 9.675571e+00 7.910427e+00 8.241225e+00 9.462971e+00 8.482126e+00 3.393883e-01 9.003856e-01 5.969816e-01 7.079644e-01 9.219704e-01 8.105440e-01 9.203123e-01 8.517199e-01 7.249490e-01 8.051795e-01 9.158930e-01 7.431657e-01 8.792441e-01
<GCONST> 6.931157e+01
~s "ST_t_3_1"
<MEAN> 25
 -1.743866e+00 -2.238667e+00 1.719744e-01 -8.533145e-01 -7.504286e-02 8.836558e-02 1.983444e+00 -2.201255e+00 -1.616206e+00 1.077550e+00 9.553012e-02 -1.494334e-01 1.531522e+00 -1.005089e+00 -5.054522e-01 -6.084046e-01 -6.344429e-01 -1.091981e+00 -3.011452e-01 -1.279375e+00 -1.295156e+00 -9.797606e-01 -8.499745e-01 -1.199418e-01 2.225714e+00
<VARIANCE> 25
 2.064484e+01 3.445486e+01 1.883125e+01 2.521458e+01 2.023099e+01 2.904392e+01 1.355418e+01 2.011722e+01 1.879292e+01 1.348263e+01 9.944968e+00 9.782529e+00 1.668741e+00 2.418515e+00 2.309460e+00 1.882856e+00 1.555853e+00 2.581582e+00 1.911644e+00 1.811426e+00 2.002844e+00 1.852094e+00 1.457428e+00 1.100274e+00 2.126475e+00
<GCONST> 8.880894e+01
~s "ST_ey_2_1"
<MEAN> 25
 9.474058e+00 -4.828713e-01 -1.484090e+00 6.202401e-01 -2.514007e+00 -7.165367e+00 -5.678306e+00 -1.068953e+00 -3.891508e+00 -7.553895e+00 -5.620852e+00 -2.584049e+00 4.988663e-01 -2.518051e+00 -1.630446e+00 -9.701381e-02 1.140543e+00 2.187518e-01 -1.049665e+00 -1.626205e+00 -2.119457e+00 -1.615518e+00 2.481755e-01 1.034823e+00 1.673671e+00
<VARIANCE> 25
 2.954303e+01 3.304614e+01 1.917281e+01 2.693059e+01 3.009942e+01 3.588095e+01 3.431836e+01 2.828944e+01 4.558818e+01 4.938081e+01 2.652887e+01 3.503476e+01 2.002790e+00 3.102197e+00 1.964595e+00 1.292048e+00 2.020294e+00 3.959428e+00 6.074257e+00 5.062587e+00 3.431771e+00 3.904175e+00 5.914917e+00 3.642659e+00 8.233802e-01
<GCONST> 1.012285e+02
~s "ST_t_4_1"
<MEAN> 25
 1.644884e+00 -1.360411e+00 -1.143788e+00 -1.528471e+00 -1.430333e+00 -4.523143e-01 7.474744e-01 -1.387639e+00 -2.950995e+00 -2.534853e+00 -1.994969e+00 -3.108369e-01 8.317266e-03 6.488782e-01 -7.363761e-02 2.233414e-01 3.710981e-01 6.068824e-01 9.048676e-02 6.993478e-01 4.570651e-01 2.156916e-02 -1.200296e-01 -1.878219e-01 -7.761151e-01
<VARIANCE> 25
 4.837412e+01 1.723146e+01 1.338264e+01 2.301177e+01 3.126661e+01 5.409911e+01 3.540128e+01 2.734234e+01 2.445175e+01 2.147905e+01 1.931596e+01 1.438094e+01 2.293734e+00 1.969178e+00 1.080624e+00 1.127048e+00 1.533684e+00 2.424716e+00 1.976555e+00 2.362746e+00 1.959368e+00 2.223531e+00 2.120013e+00 1.153158e+00 1.180501e+00
<GCONST> 9.169284e+01
~s "ST_ey_3_1"
<MEAN> 25
 1.010648e+01 -7.555338e+00 -3.463999e+00 3.435254e+00 4.024835e+00 -7.516517e+00 -1.422437e+01 -1.210680e+01 -1.082325e+01 -8.526299e+00 -6.092735e-01 4.199262e+00 2.220600e-02 -8.598253e-02 1.573407e-01 7.151017e-01 7.302768e-01 -6.861670e-02 -7.457832e-01 -2.384565e-01 3.690099e-01 2.191856e-01 2.154009e-01 1.507619e-01 -9.875238e-02
<VARIANCE> 25
 3.736626e+00 6.872356e+00 7.945163e+00 1.365661e+01 1.809413e+01 7.857224e+00 1.137161e+01 2.206705e+01 9.552315e+00 1.051191e+01 6.914806e+00 7.587252e+00 4.202371e-01 4.089487e-01 6.280261e-01 6.802087e-01 9.563366e-01 7.041380e-01 1.224388e+00 2.301824e+00 1.364933e+00 1.293199e+00 1.240638e+00 1.114701e+00 3.330750e-01
<GCONST> 7.075318e+01
~s "ST_ao_2_1"
<MEAN> 25
 -2.093318e+00 -2.504126e+00 -2.123329e+00 -8.259099e-01 -3.303967e-01 5.561426e-02 -1.087717e+00 -7.932419e-01 -2.677990e-01 6.705577e-01 2.144936e+00 2.764828e+00 -1.004070e-01 3.035964e-02 1.305723e-01 2.211740e-01 1.607481e-01 6.532343e-02 1.148968e-01 7.420363e-02 2.145397e-02 -1.510210e-01 -1.171922e-01 1.250325e-02 -7.975311e-02
<VARIANCE> 25
 6.179739e+01 1.164976e+01 1.772174e+01 7.315827e+00 2.803610e+01 4.609755e+01 3.312536e+01 1.312981e+01 1.177613e+01 8.911643e+00 6.770118e+00 6.251481e+00 1.678347e-01 1.900404e-01 2.960766e-01 7.874978e-01 7.046617e-01 4.422902e-01 7.675630e-01 1.002493e+00 1.203200e+00 8.565441e-01 6.087484e-01 8.909740e-01 1.000217e-01
<GCONST> 6.981588e+01
~s "ST_ey_4_1"
<MEAN> 25
 8.943007e+00 -3.967469e+00 -2.009667e-01 1.091040e+01 1.006873e+01 -5.317390e+00 -1.557120e+01 -7.296722e+00 -2.053275e+00 -5.951762e+00 -4.480167e+00 -7.094138e-01 -2.854633e-01 4.715230e-01 3.829229e-01 2.919700e-01 4.276136e-01 5.032274e-01 3.545641e-01 3.785216e-01 4.777977e-01 4.948499e-01 -2.278024e-01 -6.050870e-01 -4.522641e-01
<VARIANCE> 25
 5.065605e+00 7.562544e+00 8.544499e+00 1.263612e+01 2.745856e+01 3.481868e+01 1.592999e+01 2.171886e+01 1.563639e+01 2.849754e+01 9.615288e+00 1.681532e+01 9.797516e-02 3.328470e-01 5.085939e-01 6.167143e-01 5.934488e-01 8.376164e-01 7.054512e-01 1.150200e+00 1.230301e+00 8.454461e-01 8.266092e-01 6.400870e-01 1.048814e-01
<GCONST> 6.982605e+01
~s "ST_ao_3_1"
<MEAN> 25
 4.026278e+00 -1.289448e+00 2.077886e+00 7.978407e-01 -2.714999e+00 -3.308438e+00 -1.932195e+00 -4.781031e-01 2.226919e+00 2.700271e-01 -2.167057e-01 2.166049e+00 -9.484608e-02 -1.073692e-01 2.484367e-01 7.458242e-01 1.024400e+00 9.907761e-01 2.785487e-01 -9.039140e-01 -6.569759e-01 -2.118258e-01 -4.098961e-01 -5.333970e-01 -3.337635e-02
<VARIANCE> 25
 1.368226e+02 2.132745e+01 3.115246e+01 6.541567e+00 1.515498e+01 7.191003e+01 5.348125e+01 8.216837e+00 7.312013e+00 1.437140e+01 1.306326e+01 8.041552e+00 3.106173e-01 1.032853e+00 7.497889e-01 1.437318e+00 2.697556e+00 2.353448e+00 6.738910e-01 1.272696e+00 1.097228e+00 8.644391e-01 4.235854e-01 1.256810e+00 4.768689e-01
<GCONST> 8.083991e+01
~s "ST_ao_4_1"
<MEAN> 25
 2.523355e+00 2.101694e+00 3.384371e+00 1.444067e+00 -1.791979e+00 -3.440724e+00 -2.519513e+00 -1.506145e+00 -7.372297e-02 8.242270e-01 -3.729126e-01 1.456264e-01 9.291641e-01 4.306492e-01 4.933107e-01 9.410259e-02 -2.452884e-01 -8.597207e-01 -6.507202e-01 -7.481412e-01 -4.510794e-01 -1.010283e-01 -7.260026e-01 -6.330864e-01 7.465379e-01
<VARIANCE> 25
 1.012426e+02 4.188399e+01 3.795147e+01 1.791949e+01 2.481493e+01 5.980755e+01 7.194396e+01 1.432635e+01 3.978705e+00 8.115459e+00 1.640289e+01 7.319630e+00 2.622828e+00 3.043102e+00 1.151894e+00 1.426307e+00 4.929325e+00 8.191163e+00 2.124781e+00 2.156533e+00 1.634249e+00 1.632812e+00 9.158772e-01 2.454754e+00 1.537641e+00
<GCONST> 9.334081e+01
~s "ST_sil_2_1"
<MEAN> 25
 -8.789297e+00 -1.725113e+00 -9.831042e-01 -2.476605e+00 -1.005505e+00 3.243690e+00 4.048972e+00 2.721022e+00 2.428309e+00 4.143287e+00 4.066932e+00 1.684860e+00 -9.176696e-03 4.377655e-03 1.772524e-02 2.049763e-02 2.101519e-02 3.966399e-02 4.645240e-03 2.325637e-02 4.301712e-02 4.216590e-02 2.063630e-02 -5.449953e-03 -8.592900e-03
<VARIANCE> 25
 4.317665e+00 2.383391e+00 3.291242e+00 4.594738e+00 5.540701e+00 4.955306e+00 5.980572e+00 7.440837e+00 9.027361e+00 7.956409e+00 6.369408e+00 6.917884e+00 8.685254e-02 1.259152e-01 1.815963e-01 2.890579e-01 3.755185e-01 4.366195e-01 5.815711e-01 6.609596e-01 6.902586e-01 6.519309e-01 6.247546e-01 6.474805e-01 2.950045e-02
<GCONST> 5.070834e+01
~s "silst"
<MEAN> 25
 -6.783870e+00 -7.991332e-01 -3.232675e-01 -5.848399e-01 8.923854e-01 4.029992e+00 3.544047e+00 2.455416e+00 2.123062e+00 2.868842e+00 2.616865e+00 1.062767e+00 -2.678965e-02 -1.017152e-02 -2.731229e-03 1.632972e-02 2.458492e-02 2.024429e-02 2.234243e-02 2.295570e-02 1.459629e-02 1.901742e-02 2.944336e-02 2.005634e-02 -1.644661e-02
<VARIANCE> 25
 3.359734e+00 2.162064e+00 2.153089e+00 3.872336e+00 5.347503e+00 5.038906e+00 5.618427e+00 5.858428e+00 6.285684e+00 6.389007e+00 5.468492e+00 4.995537e+00 4.095050e-02 8.115896e-02 1.444666e-01 2.095986e-01 2.846371e-01 3.619964e-01 4.363795e-01 5.183432e-01 5.368544e-01 5.428494e-01 5.170597e-01 4.872247e-01 1.426746e-02
<GCONST> 4.401438e+01
~s "ST_sil_3_1"
<MEAN> 25
 -6.783870e+00 -7.991332e-01 -3.232675e-01 -5.848399e-01 8.923854e-01 4.029992e+00 3.544047e+00 2.455416e+00 2.123062e+00 2.868842e+00 2.616865e+00 1.062767e+00 -2.678965e-02 -1.017152e-02 -2.731229e-03 1.632972e-02 2.458492e-02 2.024429e-02 2.234243e-02 2.295570e-02 1.459629e-02 1.901742e-02 2.944336e-02 2.005634e-02 -1.644661e-02
<VARIANCE> 25
 3.359734e+00 2.162064e+00 2.153089e+00 3.872336e+00 5.347503e+00 5.038906e+00 5.618427e+00 5.858428e+00 6.285684e+00 6.389007e+00 5.468492e+00 4.995537e+00 4.095050e-02 8.115896e-02 1.444666e-01 2.095986e-01 2.846371e-01 3.619964e-01 4.363795e-01 5.183432e-01 5.368544e-01 5.428494e-01 5.170597e-01 4.872247e-01 1.426746e-02
<GCONST> 4.401438e+01
~s "ST_sil_4_1"
<MEAN> 25
 -4.723804e+00 -1.567458e+00 -1.020232e+00 -2.318856e-01 9.607646e-01 2.722320e+00 2.760662e+00 9.772701e-01 -1.809150e-01 8.230354e-01 1.646309e+00 9.900556e-01 7.756867e-02 8.950884e-03 -4.544392e-02 1.681838e-03 1.785335e-02 -3.064953e-03 -1.817088e-02 -7.456070e-02 -1.119178e-01 -9.025896e-02 -1.544126e-02 4.994839e-02 6.061839e-02
<VARIANCE> 25
 2.451565e+01 1.467813e+01 1.304547e+01 1.123712e+01 1.277521e+01 2.871926e+01 2.365302e+01 1.281354e+01 1.478304e+01 2.527645e+01 1.846914e+01 1.074023e+01 6.972193e-01 9.832404e-01 1.078103e+00 9.552115e-01 1.152695e+00 1.357523e+00 1.306008e+00 1.142643e+00 1.033102e+00 1.346878e+00 1.113271e+00 9.084514e-01 7.433010e-01
<GCONST> 8.019767e+01
~s "ST_iy_2_1"
<MEAN> 25
 6.698151e+00 -1.813737e+00 1.370018e+00 1.390069e+01 9.997955e+00 -3.937609e+00 -7.710130e+00 -1.851606e+00 -3.467615e+00 -7.826747e+00 -3.598035e+00 1.719686e+00 3.007047e-01 -1.008171e-02 -1.221963e-01 4.952727e-01 2.200271e-01 -5.233093e-01 -4.772182e-01 1.249672e-01 1.123341e-01 -4.055272e-01 -2.749141e-01 7.096183e-02 8.829509e-02
<VARIANCE> 25
 1.380980e+01 8.458755e+00 3.434576e+01 2.633427e+01 1.486514e+01 1.842507e+01 2.416600e+01 1.862174e+01 1.290091e+01 1.837365e+01 9.318392e+00 7.266969e+00 4.978291e-01 9.857832e-01 1.085828e+00 2.117743e+00 9.719722e-01 1.920092e+00 1.001250e+00 1.080387e+00 1.222984e+00 1.708815e+00 6.399851e-01 6.574389e-01 2.573542e-01
<GCONST> 7.825787e+01
~s "ST_iy_3_1"
<MEAN> 25
 4.006705e+00 3.316913e+00 5.378887e+00 1.047746e+01 7.404221e+00 6.588765e-01 -4.377784e+00 -1.538883e+00 8.164926e-01 -2.207376e+00 -3.906399e+00 -2.531662e+00 -1.766388e-01 -1.194001e-01 -7.685991e-02 -1.076477e-01 1.915964e-01 5.214087e-01 2.894798e-01 9.624588e-02 4.439677e-02 2.097837e-01 1.506672e-03 -5.280464e-02 -8.378709e-02
<VARIANCE> 25
 7.411715e+00 1.797616e+01 1.065657e+01 1.850364e+01 1.335939e+01 3.746949e+01 4.366869e+01 1.778335e+01 1.128463e+01 1.420851e+01 8.766183e+00 4.280897e+00 6.475160e-01 9.548676e-01 8.298201e-01 1.091951e+00 6.120493e-01 9.310513e-01 1.229918e+00 8.450079e-01 9.783785e-01 1.195987e+00 1.169105e+00 7.259425e-01 3.272831e-01
<GCONST> 7.546909e+01
~s "ST_iy_4_1"
<MEAN> 25
 3.340472e+00 -2.013121e+00 3.735829e+00 1.016899e+01 7.672748e+00 1.029148e+00 -3.971573e+00 -3.050209e+00 -2.535501e+00 -5.204206e+00 -5.450663e+00 -2.100942e+00 -5.390109e-01 3.116815e-02 -2.988009e-01 -7.905184e-01 -2.681935e-01 5.622377e-01 5.485426e-01 -3.601947e-01 -4.412834e-01 2.846116e-01 3.595456e-01 3.117872e-02 -4.250382e-01
<VARIANCE> 25
 2.345461e+01 2.464825e+01 1.461588e+01 5.013987e+01 2.601061e+01 2.497197e+01 3.596441e+01 2.747760e+01 1.415574e+01 2.317768e+01 1.903255e+01 1.505703e+01 1.507188e+00 4.325533e+00 2.033681e+00 5.909130e+00 2.731001e+00 3.436773e+00 5.237843e+00 3.946189e+00 1.312694e+00 2.501426e+00 1.606094e+00 1.740660e+00 2.187189e+00
<GCONST> 9.635571e+01
~s "ST_ae_2_1"
<MEAN> 25
 1.954375e+00 6.290168e+00 3.013671e+00 3.810799e-01 6.973436e-01 3.035223e+00 2.018942e+00 8.888950e-01 -2.894736e-02 -5.873523e-01 -3.383380e-01 -2.095849e-01 -6.863596e-01 -4.623700e-01 -9.466153e-02 1.292900e-01 1.294782e-01 1.975607e-01 1.534636e-01 2.137009e-01 2.859628e-01 3.702264e-01 2.640676e-01 3.014060e-01 -3.734249e-01
<VARIANCE> 25
 1.565109e+01 1.431928e+01 6.497668e+00 7.177434e+00 6.435081e+00 7.019069e+00 8.479001e+00 6.457728e+00 7.850336e+00 7.501581e+00 7.083736e+00 6.738791e+00 3.705484e-01 4.736513e-01 7.001868e-01 7.579681e-01 7.950016e-01 9.283429e-01 6.813114e-01 5.727567e-01 3.941422e-01 4.987004e-01 5.107382e-01 6.918482e-01 1.102509e-01
<GCONST> 6.246563e+01
~s "ST_ae_3_1"
<MEAN> 25
 -6.725419e-01 8.813980e-01 -1.163541e+00 -2.481321e+00 -2.322992e+00 4.537940e-02 1.037843e+00 5.676125e-01 4.861254e-01 8.477125e-01 5.392828e-01 5.996420e-01 1.231362e+00 -2.822723e-01 -9.933597e-01 -1.008613e+00 -1.382011e+00 -1.420384e+00 -7.740647e-01 -9.169824e-02 -1.203607e-02 -3.303338e-01 -5.269740e-01 -2.449029e-01 8.922138e-01
<VARIANCE> 25
 2.776513e+01 1.066763e+01 1.240157e+01 1.581695e+01 2.347972e+01 2.324669e+01 2.216022e+01 1.729270e+01 2.111371e+01 1.882128e+01 1.155958e+01 1.230186e+01 3.848352e+00 1.918852e+00 1.097014e+00 1.961181e+00 3.090236e+00 3.313875e+00 2.902666e+00 2.528181e+00 3.005361e+00 2.451750e+00 1.351076e+00 1.473428e+00 1.812686e+00
<GCONST> 9.047540e+01
~s "ST_ae_4_1"
<MEAN> 25
 5.929439e+00 4.836555e-01 -3.859591e+00 -6.441980e+00 -7.996397e+00 -5.237624e+00 -1.149866e+00 1.598159e+00 2.856632e+00 1.819396e+00 -9.364649e-01 -1.318455e+00 -8.814793e-02 -1.826992e-02 1.005616e-01 9.110673e-02 1.613734e-01 1.530155e-01 3.811872e-02 6.113415e-03 -6.249536e-02 4.194310e-02 1.698057e-01 -9.898271e-02 1.177802e-02
<VARIANCE> 25
 3.538282e+01 2.144752e+01 1.567319e+01 1.592616e+01 3.005172e+01 3.005876e+01 1.348767e+01 1.377217e+01 2.493842e+01 2.773291e+01 1.310765e+01 1.448016e+01 1.195757e+00 1.392541e+00 1.052191e+00 1.035349e+00 1.607105e+00 1.432941e+00 1.078451e+00 1.449170e+00 1.628401e+00 1.434909e+00 1.320780e+00 9.491904e-01 1.406756e+00
<GCONST> 8.520644e+01
~s "ST_w_2_1"
<MEAN> 25
 -3.862928e+00 2.343947e+00 2.395670e+00 1.837561e+00 2.145185e+00 4.564766e+00 5.095355e+00 3.452569e+00 2.210016e+00 1.593501e+00 7.527081e-01 -1.384811e+00 2.121225e+00 2.531281e+00 2.358020e+00 1.615833e+00 2.407212e-01 -1.155091e+00 -2.100430e+00 -2.229191e+00 -2.305313e+00 -1.593003e+00 -1.736973e+00 -1.284045e+00 9.110498e-01
<VARIANCE> 25
 4.512537e+00 7.780123e+00 9.147282e+00 6.831445e+00 5.728312e+00 5.644867e+00 8.424129e+00 9.467939e+00 8.080059e+00 5.615246e+00 8.750965e+00 6.592087e+00 6.575775e-01 5.224895e-01 3.328919e-01 2.092676e-01 4.413832e-01 1.245425e+00 2.321393e+00 2.073170e+00 1.360180e+00 8.953230e-01 6.237252e-01 5.156587e-01 1.670141e-01
<GCONST> 6.387893e+01
~s "ST_w_3_1"
<MEAN> 25
 3.767918e+00 1.091409e+01 9.484426e+00 5.311812e+00 8.409673e-01 -1.469048e+00 -4.837276e+00 -6.849380e+00 -6.703407e+00 -3.616676e+00 -3.361440e+00 -2.525774e+00 2.134369e+00 2.056661e+00 1.306691e+00 1.204888e-01 -1.241989e+00 -2.432549e+00 -2.823802e+00 -2.045893e+00 -1.385365e+00 -8.408455e-01 -2.888749e-01 3.453789e-03 1.021788e+00
<VARIANCE> 25
 1.953075e+00 1.462151e+00 2.318726e+00 2.027060e+00 5.108054e+00 7.519938e+00 9.556543e+00 8.658199e+00 8.275066e+00 6.622336e+00 4.276957e+00 5.774307e+00 9.749961e-01 8.285251e-01 9.045142e-01 7.962304e-01 1.242322e+00 1.934522e+00 2.012906e+00 2.260331e+00 1.611982e+00 6.361837e-01 6.877593e-01 3.367532e-01 2.065268e-01
<GCONST> 6.265375e+01
~s "ST_w_4_1"
<MEAN> 25
 8.026715e+00 1.290844e+01 7.874292e+00 1.405811e+00 -4.360883e+00 -8.869422e+00 -9.096744e+00 -5.092605e+00 -2.797155e+00 -1.471627e+00 -1.585678e+00 -2.702144e+00 1.352317e+00 -3.903950e-01 -1.292362e+00 -1.030737e+00 -1.290045e+00 -2.091705e+00 -1.014567e+00 1.154086e+00 1.618955e+00 6.070802e-01 -1.809331e-01 -6.511564e-01 1.004187e+00
<VARIANCE> 25
 3.910568e+00 1.817535e+00 5.825840e+00 5.934487e+00 1.040011e+01 1.553352e+01 1.637274e+01 8.644474e+00 9.934838e+00 1.115431e+01 5.177651e+00 7.352936e+00 3.813438e-01 1.477803e+00 9.710552e-01 6.958150e-01 1.112868e+00 9.972172e-01 1.447351e+00 1.431433e+00 7.641413e-01 8.405653e-01 1.616813e+00 1.697164e+00 2.257676e-01
<GCONST> 6.878135e+01
~s "ST_ng_2_1"
<MEAN> 25
 7.272681e+00 6.278033e+00 3.093535e+00 3.851414e+00 5.290762e+00 3.849841e+00 -5.584963e+00 -8.859369e+00 -2.372974e+00 1.464745e+00 -2.109346e+00 -5.622042e+00 -7.178982e-01 3.735406e-01 6.216398e-01 1.533575e-01 1.595887e-01 6.151174e-01 7.263332e-01 2.313945e-01 -1.269180e-01 1.149316e-01 2.542479e-01 -3.801040e-03 -5.763640e-01
<VARIANCE> 25
 1.829760e+01 5.628853e+00 1.120406e+01 1.173020e+01 8.374651e+00 1.523208e+01 1.261015e+01 1.309057e+01 8.318909e+00 7.080034e+00 1.432773e+01 5.215580e+00 4.982715e-01 4.067284e-01 6.413833e-01 7.906276e-01 1.234514e+00 1.841108e+00 1.184822e+00 2.599407e+00 8.739488e-01 8.676496e-01 6.286882e-01 7.318158e-01 2.637391e-01
<GCONST> 7.108949e+01
~s "ST_ng_3_1"
<MEAN> 25
 -7.475384e-02 5.332909e+00 4.430817e+00 1.974088e+00 1.597274e+00 2.400878e+00 2.396893e+00 7.577459e-01 -1.787908e-01 4.992785e-01 -8.353925e-01 -3.555622e+00 2.281426e-02 -1.359353e+00 -1.952201e+00 -2.349332e+00 -2.544886e+00 -1.756959e+00 1.575662e+00 1.703927e+00 -3.786026e-01 -1.364137e+00 -4.572938e-01 -3.071316e-02 6.406564e-01
<VARIANCE> 25
 2.255360e+01 1.072361e+01 1.371021e+01 3.229018e+01 2.757855e+01 1.419531e+01 8.999500e+00 1.402065e+01 7.533945e+00 1.025129e+01 7.924461e+00 6.630196e+00 1.048162e+00 6.583452e-01 1.007545e+00 2.105310e+00 2.655568e+00 1.463121e+00 3.000045e+00 2.243919e+00 2.243863e+00 2.150615e+00 8.693810e-01 1.066216e+00 9.630713e-01
<GCONST> 8.174976e+01
~s "ST_oy_2_1"
<MEAN> 25
 1.278211e+01 -8.704374e-02 -1.167593e+00 -2.397218e+00 -1.055721e+01 -1.591178e+01 -1.121710e+01 -3.777816e+00 -1.492194e+00 -2.280155e+00 4.276113e-01 2.851453e+00 6.652830e-01 -3.213055e-01 -4.936250e-01 -5.219923e-01 -5.335932e-01 -4.980029e-01 -1.971829e-01 6.641189e-02 -2.624424e-01 -5.303125e-01 -5.967039e-02 7.789172e-02 6.538270e-01
<VARIANCE> 25
 2.411804e+00 1.855750e+01 1.113717e+01 1.579651e+01 8.703873e+00 2.415146e+01 1.600942e+01 2.472496e+01 3.769260e+01 1.718438e+01 2.808641e+01 1.860329e+01 1.579320e+00 9.813686e-01 7.185186e-01 1.036526e+00 1.558081e+00 5.365827e+00 4.410780e+00 3.599785e+00 3.879258e+00 3.362002e+00 3.281099e+00 2.522127e+00 1.649626e+00
<GCONST> 8.919341e+01
~s "ST_m_2_1"
<MEAN> 25
 1.829181e+00 4.619888e+00 2.993941e+00 3.607181e-01 9.669806e-01 5.044162e+00 3.702752e+00 -2.464342e-02 1.841807e+00 3.013906e+00 -1.077262e+00 -4.048619e+00 5.190938e-01 1.012369e+00 8.926368e-01 1.353397e+00 2.255086e+00 2.089175e+00 4.785759e-01 -8.974891e-01 -8.648545e-01 -3.114644e-01 -3.839441e-01 -1.186319e+00 1.346740e-03
<VARIANCE> 25
 5.184493e+01 7.360529e+00 1.333519e+01 1.076433e+01 1.998169e+01 1.927003e+01 1.830467e+01 2.232372e+01 1.318546e+01 9.822183e+00 2.007597e+01 1.247181e+01 1.944379e+00 1.061265e+00 1.022547e+00 6.794432e-01 1.523080e+00 2.862307e+00 1.578043e+00 1.883888e+00 1.643974e+00 8.224732e-01 1.405822e+00 1.193124e+00 9.125198e-01
<GCONST> 8.286031e+01
~s "ST_ng_4_1"
<MEAN> 25
 -3.522125e-01 -9.222090e-01 -3.686603e+00 -5.127683e+00 -2.666947e+00 2.613353e+00 6.497657e+00 2.157623e+00 -3.982618e+00 -3.827045e+00 -1.623937e+00 -1.683727e+00 -3.175348e-02 -3.479763e-01 -3.322539e-01 3.060448e-01 7.652184e-01 3.854621e-01 -3.810454e-01 -3.557843e-02 1.251082e-01 1.480408e-02 1.114190e-01 4.506243e-01 -6.617357e-02
<VARIANCE> 25
 2.581848e+01 8.541424e+00 5.936022e+00 1.898637e+01 2.894838e+01 2.278424e+01 1.573633e+01 1.243338e+01 2.636376e+01 1.338130e+01 8.344432e+00 9.762545e+00 1.160095e+00 1.031683e+00 1.528362e+00 9.468345e-01 1.555069e+00 1.797184e+00 1.973875e+00 1.495465e+00 2.964891e+00 2.331375e+00 8.545502e-01 1.101604e+00 7.812842e-01
<GCONST> 8.238713e+01
~s "ST_oy_3_1"
<MEAN> 25
 1.417652e+01 -2.364792e+00 -7.161587e+00 -2.231900e+00 -3.577947e+00 -1.000300e+01 -7.856630e+00 -4.978296e-01 -3.736896e+00 -8.748189e+00 -2.263514e+00 3.975520e+00 -1.630626e-01 -2.870885e-01 -3.961675e-01 1.894577e+00 3.110890e+00 5.757782e-01 -1.430610e+00 -5.910321e-01 -1.776404e-01 -1.796435e-01 1.130616e-02 1.452917e-01 -3.554387e-01
<VARIANCE> 25
 1.280731e+00 5.311956e+00 5.539604e+00 1.494692e+01 3.800717e+01 9.780029e+00 1.996888e+01 2.207408e+01 1.873862e+01 1.718005e+01 2.389829e+01 1.615396e+01 1.882301e-01 3.720244e-01 7.632806e-01 1.429883e+00 1.771217e+00 1.882372e+00 3.377836e+00 2.368389e+00 3.315057e+00 4.295363e+00 2.271668e+00 3.756582e+00 1.501567e-01
<GCONST> 7.963393e+01
~s "ST_m_3_1"
<MEAN> 25
 4.593900e+00 6.071722e+00 1.621839e+00 1.636518e+00 5.917047e+00 8.363070e+00 1.893681e+00 -4.880301e+00 -2.855750e+00 8.020795e-01 -1.463995e+00 -6.751221e+00 2.948575e-01 -1.587341e-01 -4.575586e-01 -1.487841e-01 1.413383e-01 2.220883e-01 5.611728e-02 -2.509497e-01 -4.294836e-01 -1.656938e-01 1.051277e-01 5.177347e-02 2.066792e-01
<VARIANCE> 25
 8.273989e+00 3.240673e+00 1.234071e+01 3.911653e+00 5.553616e+00 1.453233e+01 8.811616e+00 1.296445e+01 1.335486e+01 7.086745e+00 5.377761e+00 6.813007e+00 4.011565e-01 1.801396e-01 5.336072e-01 2.928185e-01 4.190449e-01 6.337488e-01 6.495693e-01 7.769445e-01 6.303024e-01 4.644409e-01 3.483873e-01 5.920966e-01 1.875829e-01
<GCONST> 5.941904e+01
~s "ST_oy_4_1"
<MEAN> 25
 1.149837e+01 -2.592559e+00 -4.569300e+00 8.447815e+00 8.173182e+00 -9.884727e+00 -1.438122e+01 -5.999083e-01 -1.292801e+00 -8.313020e+00 -5.669642e+00 -7.690667e-01 -5.754213e-01 6.600267e-01 9.932340e-01 4.480222e-01 3.051005e-01 9.171484e-01 1.122847e+00 9.583263e-01 -2.516620e-02 -7.371391e-01 -7.195314e-01 -4.817799e-01 -5.930912e-01
<VARIANCE> 25
 3.007507e+00 4.556486e+00 6.706223e+00 1.050167e+01 6.125694e+00 1.358436e+01 1.225179e+01 2.128210e+01 2.121294e+01 2.839649e+01 6.842567e+00 1.288972e+01 6.438965e-02 6.004044e-01 2.996246e-01 1.931898e+00 1.566646e+00 2.410538e+00 3.875398e+00 1.794056e+00 1.911961e+00 2.214642e+00 1.656422e+00 1.957464e+00 7.872477e-02
<GCONST> 7.323055e+01
~s "ST_er_2_1"
<MEAN> 25
 1.066608e+01 2.435410e+00 -6.304248e+00 -5.840268e+00 -3.572710e+00 -6.974081e+00 -7.572189e+00 -3.477782e+00 -2.868569e+00 -5.869202e+00 -5.120230e+00 -1.306784e+00 -7.681091e-02 4.042962e-01 7.811350e-02 -8.413446e-01 -6.134983e-01 2.564369e-01 2.751971e-01 3.045381e-02 3.235104e-01 5.257232e-01 -1.254852e-02 -3.572614e-01 -9.066110e-02
<VARIANCE> 25
 4.203598e+00 1.443170e+01 7.673935e+00 1.992536e+01 2.289279e+01 2.254583e+01 1.037597e+01 1.097705e+01 1.365777e+01 2.283310e+01 9.464563e+00 1.550511e+01 1.697516e-01 3.368468e-01 3.218243e-01 4.899913e-01 8.401102e-01 1.183978e+00 8.100674e-01 6.208552e-01 1.215380e+00 8.061473e-01 6.525262e-01 6.655538e-01 2.111195e-01
<GCONST> 6.898392e+01
~s "ST_m_4_1"
<MEAN> 25
 5.464171e+00 5.111783e+00 -4.819418e-01 1.000924e+00 6.783978e+00 1.063343e+01 4.776727e+00 -4.339650e+00 -5.930716e+00 4.493272e-01 2.838535e+00 -3.647092e+00 2.765915e-01 -5.153534e-01 -7.179405e-01 -4.059693e-01 -6.613573e-01 -1.339461e+00 -7.568814e-01 2.514206e-01 -2.273111e-02 -5.089940e-01 1.452414e-01 8.979482e-01 3.012895e-01
<VARIANCE> 25
 1.236029e+01 3.617807e+00 9.018168e+00 6.798200e+00 2.186258e+01 3.380534e+01 2.287127e+01 2.158701e+01 2.159422e+01 1.106211e+01 1.760691e+01 1.012293e+01 8.992679e-01 5.342269e-01 5.272943e-01 1.115318e+00 1.140434e+00 2.847669e+00 1.594169e+00 7.914904e-01 7.266713e-01 8.449343e-01 9.024361e-01 1.488332e+00 4.986421e-01
<GCONST> 7.658741e+01
~s "ST_er_3_1"
<MEAN> 25
 4.343578e+00 5.060024e+00 -2.336352e+00 -7.507379e+00 -3.495188e+00 2.016558e+00 1.798731e+00 -6.914432e-01 -1.079539e+00 -6.989726e-01 -1.619426e+00 -2.935277e-01 -1.066387e+00 1.056411e-01 6.426362e-01 5.788400e-01 3.450690e-01 1.072349e+00 1.490637e+00 8.756043e-01 6.431295e-01 6.873841e-01 8.955653e-01 5.211108e-01 -8.326235e-01
<VARIANCE> 25
 1.356531e+01 2.718458e+01 6.919529e+00 2.404012e+01 2.016671e+01 1.998714e+01 2.029073e+01 1.424142e+01 1.607659e+01 1.332105e+01 1.651558e+01 1.150486e+01 8.821474e-01 2.069308e+00 6.253715e-01 1.112974e+00 1.941325e+00 1.123675e+00 5.864329e-01 1.710078e+00 2.395730e+00 9.973038e-01 1.884451e+00 1.592987e+00 3.651912e-01
<GCONST> 8.123557e+01
~s "ST_ah_2_1"
<MEAN> 25
 -7.190490e+00 8.912299e-02 1.041892e+00 -1.824525e-01 1.427347e+00 4.834688e+00 4.101450e+00 1.640069e+00 6.086890e-01 2.287593e+00 2.761375e+00 1.371018e+00 -9.338168e-02 -1.276193e-01 -1.392581e-01 -1.536326e-01 -1.221723e-01 -9.325667e-02 2.154480e-02 9.647455e-02 3.826113e-02 -8.494987e-03 -2.187485e-03 -4.495112e-03 -3.203844e-02
<VARIANCE> 25
 7.872398e+00 5.237626e+00 2.914969e+00 6.010376e+00 4.466430e+00 9.078447e+00 1.039726e+01 1.004565e+01 5.973754e+00 5.287229e+00 7.436151e+00 5.862233e+00 6.120711e-02 1.359074e-01 1.567517e-01 1.523632e-01 3.380131e-01 3.542711e-01 5.566586e-01 6.001089e-01 5.187343e-01 5.386478e-01 5.441399e-01 6.057422e-01 2.022835e-02
<GCONST> 5.007999e+01
~s "ST_er_4_1"
<MEAN> 25
 -3.891468e+00 3.822499e+00 1.621893e+00 -4.049146e+00 -3.400290e+00 2.898377e+00 6.085040e+00 4.529016e+00 3.571768e+00 3.147686e+00 1.186440e+00 -6.015863e-01 -6.973912e-01 -5.086845e-01 5.602604e-02 3.019134e-01 7.390250e-02 -3.169519e-01 -2.244379e-01 -4.809076e-03 4.476507e-02 1.174403e-01 1.032953e-01 8.165287e-02 -3.246346e-01
<VARIANCE> 25
 1.080663e+01 7.519549e+00 4.793709e+00 6.444775e+00 1.226082e+01 1.445964e+01 1.984356e+01 1.831061e+01 1.842840e+01 1.483614e+01 8.120069e+00 8.270909e+00 4.569459e-01 4.601077e-01 8.024636e-01 5.587964e-01 6.248281e-01 9.372822e-01 1.475500e+00 1.154227e+00 9.246238e-01 7.850500e-01 7.318891e-01 1.026253e+00 1.580368e-01
<GCONST> 6.985069e+01
~s "ST_ah_3_1"
<MEAN> 25
 -7.081636e-01 1.668271e+00 -3.215509e-01 -6.179347e-01 5.243280e-01 3.489218e+00 3.517619e+00 3.943425e-01 -6.492121e-01 5.590616e-01 -8.348735e-01 -2.566811e+00 1.878977e+00 -2.443899e-01 -1.082380e+00 -2.045332e+00 -2.763404e+00 -1.986621e+00 2.561705e-01 7.116516e-01 -1.785631e-01 -3.412140e-01 6.368403e-01 1.387692e-01 1.599054e+00
<VARIANCE> 25
 4.861906e+01 1.718115e+01 1.172192e+01 1.918780e+01 2.250845e+01 2.498934e+01 9.103248e+00 2.230859e+01 5.893637e+00 1.033265e+01 2.133097e+01 9.722340e+00 1.231010e+00 1.671799e+00 1.263911e+00 1.064919e+00 2.971222e+00 4.108785e+00 4.883769e+00 3.447795e+00 2.956372e+00 1.527035e+00 2.111415e+00 1.920016e+00 1.948808e+00
<GCONST> 8.909900e+01
~s "ST_ah_4_1"
<MEAN> 25
 7.325264e+00 1.695928e+00 -2.561005e+00 -6.935903e+00 -7.858030e+00 -4.109468e+00 -5.386648e-01 -3.139087e-01 8.096359e-01 2.718550e+00 1.543329e+00 -8.158267e-01 5.477932e-02 1.898597e-01 1.862692e-01 5.812584e-03 -1.056232e-01 -1.023542e-01 -1.392295e-01 -6.884045e-02 1.425816e-01 1.361707e-01 -7.489324e-05 5.912269e-02 -2.554637e-02
<VARIANCE> 25
 4.074589e+01 3.586782e+01 1.588959e+01 2.397593e+01 4.133533e+01 3.349764e+01 2.821236e+01 2.117103e+01 3.660251e+01 4.084338e+01 2.410825e+01 1.619620e+01 3.349485e+00 2.608337e+00 1.312351e+00 2.436040e+00 3.329106e+00 2.849450e+00 1.987623e+00 1.947307e+00 2.404285e+00 2.522520e+00 1.932082e+00 1.945148e+00 2.550304e+00
<GCONST> 9.707521e+01
~s "ST_z_2_1"
<MEAN> 25
 -6.365713e+00 -1.551816e+00 1.022541e+01 -3.909715e+00 5.676292e+00 1.817087e+00 2.551677e+00 -5.821030e+00 -6.145712e+00 -2.818975e-01 -1.034351e+00 -1.147503e+00 -2.598152e+00 -3.451003e-01 1.426811e+00 -2.118121e+00 7.751168e-02 2.127993e-01 9.912680e-01 -4.600181e-01 -1.395702e-01 9.406195e-01 5.534908e-01 -5.037402e-02 3.158687e-01
<VARIANCE> 25
 5.126078e+01 1.858130e+01 2.814644e+01 4.588189e+01 3.501250e+01 1.498354e+01 3.263103e+01 1.765300e+01 2.432014e+01 2.822177e+01 9.763186e+00 8.893583e+00 1.554119e+00 1.452464e+00 2.568686e+00 2.995876e+00 1.381119e+00 1.530587e+00 1.524950e+00 1.336374e+00 2.419286e+00 1.090965e+00 1.352016e+00 1.371763e+00 4.604559e-01
<GCONST> 8.871164e+01
~s "ST_z_3_1"
<MEAN> 25
 -1.575061e+01 -6.310151e+00 1.331957e+01 -1.015562e+01 1.240956e+00 2.000452e+00 7.589204e+00 -5.842496e+00 -1.036104e+00 4.116963e+00 1.591282e+00 -1.371362e+00 1.993463e-01 -6.533760e-01 -1.172968e-01 2.792052e-01 -4.500712e-01 3.557488e-01 3.986247e-01 2.259465e-01 4.269042e-01 4.950837e-01 2.641148e-01 9.585270e-02 -2.174014e-01
<VARIANCE> 25
 4.126343e+00 1.370707e+01 4.523926e+00 3.847420e+00 2.412145e+01 8.443883e+00 2.097029e+01 6.498814e+00 2.006642e+01 1.443633e+01 9.896112e+00 1.263184e+01 3.038526e-01 1.689898e-01 3.352665e-01 4.115959e-01 7.417718e-01 5.639341e-01 1.059814e+00 6.483474e-01 1.529136e+00 1.104547e+00 5.800040e-01 1.237594e+00 1.179949e-01
<GCONST> 6.542648e+01
~s "ST_z_4_1"
<MEAN> 25
 -8.125994e+00 -6.147246e+00 5.592085e+00 -3.027491e+00 -1.290123e+00 6.034197e+00 7.413249e+00 -1.831258e+00 -4.890724e-01 4.707718e+00 5.031250e-01 -1.243495e+00 1.055208e+00 9.244505e-01 -1.530409e+00 1.163443e+00 2.331526e-02 1.185359e-01 -6.644861e-01 6.953095e-01 2.132116e-01 -6.118292e-01 -9.783758e-02 2.463527e-01 -1.051313e+00
<VARIANCE> 25
 1.188985e+01 1.962780e+01 3.269678e+01 1.160929e+01 2.594308e+01 4.419277e+00 1.541576e+01 1.614433e+01 1.196140e+01 1.039692e+01 1.399755e+01 7.755284e+00 8.304806e-01 1.319723e+00 1.566261e+00 1.239838e+00 7.441382e-01 7.482716e-01 8.761724e-01 5.214399e-01 7.837957e-01 1.387362e+00 1.359419e+00 1.317035e+00 2.046664e-01
<GCONST> 7.557428e+01
~s "ST_ch_2_1"
<MEAN> 25
 -6.957416e+00 -1.642122e+01 6.160126e+00 1.011235e+01 1.028980e+00 -6.035100e+00 -4.317307e+00 -3.567638e+00 2.237261e+00 1.481871e+00 -2.217305e+00 6.733499e-02 -5.619364e-01 -1.817574e+00 4.285544e-01 8.069987e-01 1.090785e-01 -7.648491e-02 -1.175831e-01 -8.102407e-02 9.848614e-01 6.962051e-01 -4.865597e-01 7.145570e-02 5.044677e-01
<VARIANCE> 25
 1.977753e+01 1.101721e+02 2.554884e+01 2.571323e+01 1.915255e+01 4.182689e+01 1.530205e+01 2.022940e+01 2.000234e+01 2.756385e+01 1.647354e+01 6.833945e+00 1.282920e+00 4.594466e+00 3.097499e+00 2.070992e+00 1.615333e+00 3.101200e+00 8.981036e-01 1.351323e+00 1.551352e+00 1.674092e+00 1.250265e+00 1.080052e+00 7.983768e-01
<GCONST> 9.004537e+01
~s "ST_ch_3_1"
<MEAN> 25
 -3.791985e+00 -1.347207e+01 3.550151e+00 7.554564e+00 1.721473e+00 2.277036e+00 8.696628e-01 -3.450457e+00 4.438887e+00 7.376430e+00 -6.490815e-01 1.014472e+00 6.930676e-01 5.564144e-01 -1.259852e+00 -1.319649e+00 -9.681451e-01 7.878658e-01 8.975012e-01 4.789823e-01 -5.031058e-01 2.750126e-02 9.130895e-01 9.089291e-01 -3.657153e-01
<VARIANCE> 25
 5.657049e+00 1.684909e+02 2.309410e+01 1.560129e+01 3.735977e+00 2.278526e+01 1.243558e+01 7.244569e+01 7.671810e+00 1.871284e+01 3.120866e+01 9.791903e+00 1.902820e+00 5.983605e+00 1.579198e+00 3.286448e+00 1.567273e+00 3.355696e+00 6.095631e-01 6.994463e-01 2.620489e+00 7.733222e-01 1.570724e+00 5.234824e-01 6.060939e-01
<GCONST> 8.552665e+01
~s "ST_ch_4_1"
<MEAN> 25
 -1.315155e+00 -1.134517e+01 2.590610e+00 8.080298e+00 1.739606e+00 -5.085737e-01 -1.621227e+00 -3.480264e+00 1.775232e+00 3.060866e+00 -3.654649e+00 1.168106e+00 1.881371e+00 1.613400e+00 -4.169601e-01 1.413105e-02 6.024870e-01 -2.203574e-01 -9.417035e-01 -8.027393e-01 -1.428997e+00 -1.705166e+00 -9.674608e-01 -4.813415e-01 5.727931e-01
<VARIANCE> 25
 4.362624e+01 9.461040e+01 3.106738e+01 2.420140e+01 2.141054e+01 2.305029e+01 2.587504e+01 3.270266e+01 4.169387e+01 3.916940e+01 1.933417e+01 1.031083e+01 4.960736e+00 1.878982e+01 4.781334e+00 4.020345e+00 1.664882e+00 2.112535e+00 1.678743e+00 1.317627e+00 2.227974e+00 5.661553e+00 2.229004e+00 7.895789e-01 1.249117e+00
<GCONST> 9.939552e+01
~s "ST_eh_2_1"
<MEAN> 25
 6.358722e-01 -4.573153e+00 -2.874300e+00 1.221340e+00 4.179762e-01 7.165756e-01 2.407300e+00 -2.704816e-01 -5.391982e-01 3.971580e+00 3.672217e+00 8.202765e-01 1.640441e+00 -5.991285e-01 -5.056592e-01 5.663168e-01 3.014840e-01 -8.872514e-01 -1.094682e+00 -9.999653e-01 -5.252449e-01 -5.989982e-01 -4.313155e-01 3.022141e-01 1.404868e+00
<VARIANCE> 25
 2.079245e+01 2.334954e+01 4.454590e+01 2.541930e+01 1.064092e+01 1.542857e+01 5.716047e+00 1.855674e+01 1.549961e+01 3.158448e+01 2.222806e+01 1.064970e+01 1.823695e+00 3.012402e+00 1.910634e+00 1.770851e+00 2.521752e+00 1.929059e+00 2.566756e+00 2.052936e+00 1.150783e+00 2.278104e+00 1.715723e+00 1.112215e+00 1.083595e+00
<GCONST> 8.844618e+01
~s "ST_eh_3_1"
<MEAN> 25
 8.956083e+00 -4.765903e+00 -1.757634e+00 6.879927e+00 3.827233e+00 -5.876209e+00 -7.952909e+00 -6.173840e+00 -6.010114e+00 -7.455287e+00 -2.297895e+00 2.602667e+00 2.022209e+00 -5.856178e-01 -1.548857e+00 -5.104219e-01 2.202191e-01 -1.695284e+00 -3.063326e+00 -1.829939e+00 -1.011064e+00 -1.394017e+00 8.919976e-03 1.436662e+00 1.834271e+00
<VARIANCE> 25
 1.392482e+01 7.719160e+00 1.985063e+01 4.337741e+01 2.127623e+01 1.120508e+01 3.090968e+01 2.238894e+01 1.621147e+01 3.104016e+01 1.521539e+01 1.230749e+01 2.554600e+00 9.764147e-01 3.773413e+00 2.023486e+00 3.140510e+00 1.712133e+00 2.145256e+00 2.019470e+00 1.835396e+00 2.816835e+00 2.383037e+00 1.173638e+00 1.076155e+00
<GCONST> 8.968940e+01
~s "ST_eh_4_1"
<MEAN> 25
 1.027171e+01 -4.581349e+00 -4.954597e+00 2.454909e+00 1.554314e+00 -8.583905e+00 -9.944381e+00 -6.105175e+00 -6.859580e+00 -6.681040e+00 -1.794674e-02 5.042219e+00 -8.662454e-02 3.578896e-01 -5.083691e-03 -2.883273e-01 -1.912737e-01 5.685218e-02 4.868146e-01 5.894175e-01 3.025350e-02 -6.351662e-02 -1.373510e-02 -2.767896e-02 -2.819244e-01
<VARIANCE> 25
 8.323418e+00 7.544226e+00 1.749423e+01 2.480648e+01 2.496742e+01 1.179384e+01 1.990427e+01 2.045919e+01 1.330190e+01 1.862915e+01 1.680646e+01 1.354965e+01 5.324613e-01 5.240456e-01 1.016799e+00 1.196048e+00 9.543459e-01 1.056239e+00 1.244797e+00 1.808877e+00 9.361227e-01 1.323429e+00 1.016920e+00 9.732701e-01 4.613217e-01
<GCONST> 7.796420e+01
~s "ST_p_2_1"
<MEAN> 25
 -3.305650e+00 -1.402058e+00 -2.292783e+00 -3.076422e+00 -7.048707e-01 2.986495e+00 4.555864e+00 2.892151e+00 1.867241e+00 1.619023e+00 -3.782461e-01 -1.441085e+00 -2.460025e-01 1.618640e-01 1.671598e-01 9.649295e-02 3.474931e-02 1.573244e-01 8.380173e-03 2.273015e-01 3.254392e-01 1.906245e-01 1.318448e-01 4.621460e-02 -3.325042e-01
<VARIANCE> 25
 2.090188e+00 8.765453e+00 6.694999e+00 6.522346e+00 6.955988e+00 7.765251e+00 1.041781e+01 1.002158e+01 9.512908e+00 5.936510e+00 6.865403e+00 8.092291e+00 2.486815e-01 3.663770e-01 6.030993e-01 6.197720e-01 6.672006e-01 6.724726e-01 5.779988e-01 7.054170e-01 6.599872e-01 5.983752e-01 6.648782e-01 7.414554e-01 1.398218e-01
<GCONST> 6.063819e+01
~s "ST_p_3_1"
<MEAN> 25
 -5.146603e+00 -1.574972e-01 -6.413491e-01 -4.554759e-01 1.496854e+00 4.474653e+00 4.215846e+00 3.106865e+00 2.784685e+00 2.784762e+00 2.056543e+00 1.183933e+00 -2.959795e-02 -1.960889e-02 1.758297e-02 3.491627e-02 3.845528e-02 3.769797e-02 1.240408e-02 -1.154227e-02 -7.476312e-04 1.723871e-02 1.932956e-02 2.935227e-02 -1.251785e-02
<VARIANCE> 25
 7.511826e-01 1.216068e+00 2.066657e+00 2.748229e+00 6.200624e+00 4.539537e+00 4.133930e+00 4.455241e+00 4.639019e+00 4.973074e+00 4.114242e+00 4.171231e+00 3.735342e-02 7.942782e-02 1.177508e-01 1.793494e-01 2.898222e-01 3.754722e-01 3.796719e-01 4.465241e-01 4.312467e-01 4.550926e-01 4.532990e-01 5.598338e-01 1.150360e-02
<GCONST> 3.868996e+01
~s "ST_p_4_1"
<MEAN> 25
 -2.849688e+00 -3.417383e-01 -5.615627e-01 -1.052108e+00 4.883907e-02 2.953131e+00 3.158133e+00 1.683338e+00 1.818707e+00 2.236213e+00 1.097417e+00 1.411738e-01 2.643968e+00 7.036071e-01 2.810312e-01 2.454353e-01 -1.316550e+00 -2.900056e+00 -2.468232e+00 -1.329174e+00 -6.274512e-01 -8.627944e-01 -7.645947e-01 -2.099589e-01 1.827356e+00
<VARIANCE> 25
 1.728385e+01 4.090210e+00 4.381225e+00 6.538560e+00 1.105903e+01 1.157362e+01 1.018513e+01 9.959433e+00 7.629951e+00 7.615015e+00 6.521598e+00 6.113898e+00 3.163629e+00 1.206098e+00 7.315784e-01 1.001098e+00 2.194293e+00 5.938299e+00 4.326227e+00 1.587888e+00 1.286889e+00 8.143759e-01 9.156101e-01 1.003998e+00 1.713551e+00
<GCONST> 7.680298e+01
~s "ST_ax_2_1"
<MEAN> 25
 -1.114785e+00 8.629667e-01 6.775391e-01 -8.969097e-01 -8.101714e-01 4.389301e-01 -2.011589e-01 -1.940418e+00 -1.941438e+00 -4.827738e-01 5.172420e-01 2.117980e-01 1.978509e+00 7.269081e-02 -2.438485e-01 -3.880751e-01 -1.547408e+00 -2.626533e+00 -1.804229e+00 -7.451999e-01 -4.397599e-01 -7.609358e-01 -6.979681e-01 1.235088e-01 1.562390e+00
<VARIANCE> 25
 2.514144e+01 1.695022e+01 1.176510e+01 9.090485e+00 2.562285e+01 3.587098e+01 3.855536e+01 2.208718e+01 1.432194e+01 1.260986e+01 9.881235e+00 9.510755e+00 3.186270e+00 2.899763e+00 1.491979e+00 1.644624e+00 2.657949e+00 4.919601e+00 5.973624e+00 2.980203e+00 1.832517e+00 2.116559e+00 1.892980e+00 1.568297e+00 1.751013e+00
<GCONST> 9.155898e+01
~s "ST_ih_2_1"
<MEAN> 25
 8.186726e+00 -1.411357e+00 -6.837852e-01 7.482034e+00 5.460372e+00 -4.044116e+00 -6.897528e+00 -3.348062e+00 -5.076990e+00 -7.912647e+00 -3.309827e+00 2.279413e+00 5.085286e-01 -2.087993e-01 -7.454317e-02 4.808731e-01 1.041816e-01 -9.008940e-01 -8.223675e-01 -2.746379e-02 -2.181292e-01 -4.790836e-01 -1.699826e-01 3.750776e-01 4.005696e-01
<VARIANCE> 25
 1.824719e+01 1.708650e+01 2.539434e+01 3.723724e+01 2.940516e+01 3.797355e+01 3.953692e+01 1.951738e+01 2.735887e+01 3.056152e+01 1.592203e+01 1.812230e+01 1.953792e+00 2.058564e+00 1.736175e+00 2.959261e+00 1.649930e+00 2.530393e+00 3.103975e+00 2.243696e+00 1.653173e+00 3.031918e+00 1.488327e+00 1.959962e+00 8.821117e-01
<GCONST> 9.355663e+01
~s "ST_ax_3_1"
<MEAN> 25
 8.360417e+00 4.175318e+00 4.896866e-01 -1.608883e+00 -7.879130e+00 -1.274435e+01 -1.001919e+01 -2.853766e+00 -9.811278e-02 -2.030608e+00 -2.777182e+00 6.297071e-02 2.646538e+00 -8.052150e-02 -7.260997e-01 -3.316189e-01 -1.431633e+00 -2.618166e+00 -1.899761e+00 1.589740e-01 5.772846e-01 -5.090651e-01 -7.399670e-01 2.125418e-01 1.891009e+00
<VARIANCE> 25
 1.478850e+01 2.267195e+01 1.554171e+01 1.664775e+01 2.296093e+01 3.837956e+01 3.914248e+01 2.004443e+01 2.893064e+01 1.999094e+01 1.338911e+01 1.439550e+01 2.059898e+00 2.096454e+00 1.201661e+00 1.656519e+00 2.357476e+00 3.390440e+00 2.739423e+00 2.811098e+00 2.107436e+00 1.948907e+00 1.892843e+00 1.356393e+00 1.344399e+00
<GCONST> 9.130851e+01
~s "ST_ih_3_1"
<MEAN> 25
 6.772287e+00 -2.039346e+00 1.362927e+00 1.030915e+01 7.699888e+00 -3.708082e+00 -8.545395e+00 -4.469495e+00 -4.718499e+00 -6.900161e+00 -3.875921e+00 7.770987e-01 -4.893600e-01 9.552035e-01 1.145019e-01 -9.927164e-01 -4.475958e-01 1.039901e+00 9.365009e-01 -1.834350e-01 1.809722e-01 9.316367e-01 4.735539e-01 -4.192333e-01 -7.142375e-01
<VARIANCE> 25
 1.195050e+01 9.449356e+00 2.726830e+01 4.423405e+01 3.100759e+01 2.078959e+01 1.997062e+01 1.523989e+01 2.692821e+01 1.389954e+01 1.130815e+01 1.026744e+01 7.170458e-01 8.157534e-01 8.790798e-01 1.229067e+00 1.012378e+00 2.029849e+00 1.808670e+00 1.943206e+00 1.251442e+00 1.290817e+00 6.727808e-01 8.829987e-01 8.580802e-01
<GCONST> 8.195930e+01
~s "ST_ax_4_1"
<MEAN> 25
 8.735229e+00 2.738534e+00 -8.381895e-01 -3.075107e+00 -7.180591e+00 -1.019037e+01 -8.215200e+00 -2.882490e+00 -5.011740e-01 -1.179595e+00 -3.677173e-01 1.099973e+00 -7.754143e-02 1.176679e-01 -3.769835e-02 -5.829641e-02 1.851925e-01 3.611279e-01 3.772504e-01 2.379223e-01 -2.833430e-02 -8.782476e-02 2.318844e-03 -4.078276e-02 -1.316406e-01
<VARIANCE> 25
 3.202304e+01 2.546188e+01 1.647598e+01 1.728647e+01 1.805320e+01 3.710673e+01 3.627583e+01 3.428671e+01 3.793035e+01 2.220880e+01 2.409798e+01 1.868445e+01 1.914941e+00 2.192523e+00 1.291447e+00 1.256881e+00 1.476537e+00 3.715635e+00 2.874438e+00 1.683327e+00 2.385272e+00 1.429027e+00 1.585344e+00 1.074518e+00 1.990818e+00
<GCONST> 9.242700e+01
~s "ST_ih_4_1"
<MEAN> 25
 4.144925e+00 2.158775e+00 2.042852e-01 3.308370e+00 3.123873e+00 -5.706784e-01 -3.105189e+00 -2.411803e+00 -2.934675e+00 -3.751214e+00 -2.167540e+00 6.278718e-01 -1.078776e+00 7.463931e-01 6.712086e-02 -1.372191e+00 -8.570658e-01 9.019132e-01 1.552732e+00 9.236442e-01 8.364776e-01 9.502761e-01 5.293358e-01 2.902871e-02 -9.945331e-01
<VARIANCE> 25
 3.607969e+01 5.821031e+00 2.670171e+01 2.383273e+01 3.097648e+01 3.744479e+01 2.359816e+01 2.320119e+01 1.749573e+01 1.651408e+01 1.380514e+01 2.174944e+01 1.605585e+00 1.031021e+00 1.363883e+00 1.785533e+00 9.621269e-01 2.680779e+00 1.596853e+00 2.707934e+00 2.261265e+00 1.836300e+00 1.215922e+00 1.218782e+00 1.064648e+00
<GCONST> 8.816766e+01
~h "b"
<BEGINHMM>
<NUMSTATES> 5
<STATE> 2
~s "ST_b_2_1"
<STATE> 3
~s "ST_b_3_1"
<STATE> 4
~s "ST_b_4_1"
~t "T_b"
<ENDHMM>
~h "d"
<BEGINHMM>
<NUMSTATES> 5
<STATE> 2
~s "ST_d_2_1"
<STATE> 3
~s "ST_d_3_1"
<STATE> 4
~s "ST_d_4_1"
~t "T_d"
<ENDHMM>
~h "f"
<BEGINHMM>
<NUMSTATES> 5
<STATE> 2
~s "ST_f_2_1"
<STATE> 3
~s "ST_f_3_1"
<STATE> 4
~s "ST_f_4_1"
~t "T_f"
<ENDHMM>
~h "g"
<BEGINHMM>
<NUMSTATES> 5
<STATE> 2
~s "ST_g_2_1"
<STATE> 3
~s "ST_g_3_1"
<STATE> 4
~s "ST_g_4_1"
~t "T_g"
<ENDHMM>
~h "k"
<BEGINHMM>
<NUMSTATES> 5
<STATE> 2
~s "ST_k_2_1"
<STATE> 3
~s "ST_k_3_1"
<STATE> 4
~s "ST_k_4_1"
~t "T_k"
<ENDHMM>
~h "l"
<BEGINHMM>
<NUMSTATES> 5
<STATE> 2
~s "ST_l_2_1"
<STATE> 3
~s "ST_l_3_1"
<STATE> 4
~s "ST_l_4_1"
~t "T_l"
<ENDHMM>
~h "m"
<BEGINHMM>
<NUMSTATES> 5
<STATE> 2
~s "ST_m_2_1"
<STATE> 3
~s "ST_m_3_1"
<STATE> 4
~s "ST_m_4_1"
~t "T_m"
<ENDHMM>
~h "n"
<BEGINHMM>
<NUMSTATES> 5
<STATE> 2
~s "ST_n_2_1"
<STATE> 3
~s "ST_n_3_1"
<STATE> 4
~s "ST_n_4_1"
~t "T_n"
<ENDHMM>
~h "p"
<BEGINHMM>
<NUMSTATES> 5
<STATE> 2
~s "ST_p_2_1"
<STATE> 3
~s "ST_p_3_1"
<STATE> 4
~s "ST_p_4_1"
~t "T_p"
<ENDHMM>
~h "r"
<BEGINHMM>
<NUMSTATES> 5
<STATE> 2
~s "ST_r_2_1"
<STATE> 3
~s "ST_r_3_1"
<STATE> 4
~s "ST_r_4_1"
~t "T_r"
<ENDHMM>
~h "s"
<BEGINHMM>
<NUMSTATES> 5
<STATE> 2
~s "ST_s_2_1"
<STATE> 3
~s "ST_s_3_1"
<STATE> 4
~s "ST_s_4_1"
~t "T_s"
<ENDHMM>
~h "t"
<BEGINHMM>
<NUMSTATES> 5
<STATE> 2
~s "ST_t_2_1"
<STATE> 3
~s "ST_t_3_1"
<STATE> 4
~s "ST_t_4_1"
~t "T_t"
<ENDHMM>
~h "v"
<BEGINHMM>
<NUMSTATES> 5
<STATE> 2
~s "ST_v_2_1"
<STATE> 3
~s "ST_v_3_1"
<STATE> 4
~s "ST_v_4_1"
~t "T_v"
<ENDHMM>
~h "w"
<BEGINHMM>
<NUMSTATES> 5
<STATE> 2
~s "ST_w_2_1"
<STATE> 3
~s "ST_w_3_1"
<STATE> 4
~s "ST_w_4_1"
~t "T_w"
<ENDHMM>
~h "y"
<BEGINHMM>
<NUMSTATES> 5
<STATE> 2
~s "ST_y_2_1"
<STATE> 3
~s "ST_y_3_1"
<STATE> 4
~s "ST_y_4_1"
~t "T_y"
<ENDHMM>
~h "z"
<BEGINHMM>
<NUMSTATES> 5
<STATE> 2
~s "ST_z_2_1"
<STATE> 3
~s "ST_z_3_1"
<STATE> 4
~s "ST_z_4_1"
~t "T_z"
<ENDHMM>
~h "t-el"
<BEGINHMM>
<NUMSTATES> 5
<STATE> 2
~s "ST_el_2_1"
<STATE> 3
~s "ST_el_3_1"
<STATE> 4
~s "ST_el_4_1"
~t "T_el"
<ENDHMM>
~h "t-en"
<BEGINHMM>
<NUMSTATES> 5
<STATE> 2
~s "ST_en_2_1"
<STATE> 3
~s "ST_en_3_1"
<STATE> 4
~s "ST_en_4_1"
~t "T_en"
<ENDHMM>
~h "d-eh+p"
<BEGINHMM>
<NUMSTATES> 5
<STATE> 2
~s "ST_eh_2_1"
<STATE> 3
~s "ST_eh_3_1"
<STATE> 4
~s "ST_eh_4_1"
~t "T_eh"
<ENDHMM>
~h "aa"
<BEGINHMM>
<NUMSTATES> 5
<STATE> 2
~s "ST_aa_2_1"
<STATE> 3
~s "ST_aa_3_1"
<STATE> 4
~s "ST_aa_4_1"
~t "T_aa"
<ENDHMM>
~h "ae"
<BEGINHMM>
<NUMSTATES> 5
<STATE> 2
~s "ST_ae_2_1"
<STATE> 3
~s "ST_ae_3_1"
<STATE> 4
~s "ST_ae_4_1"
~t "T_ae"
<ENDHMM>
~h "ah"
<BEGINHMM>
<NUMSTATES> 5
<STATE> 2
~s "ST_ah_2_1"
<STATE> 3
~s "ST_ah_3_1"
<STATE> 4
~s "ST_ah_4_1"
~t "T_ah"
<ENDHMM>
~h "ao"
<BEGINHMM>
<NUMSTATES> 5
<STATE> 2
~s "ST_ao_2_1"
<STATE> 3
~s "ST_ao_3_1"
<STATE> 4
~s "ST_ao_4_1"
~t "T_ao"
<ENDHMM>
~h "aw"
<BEGINHMM>
<NUMSTATES> 5
<STATE> 2
~s "ST_aw_2_1"
<STATE> 3
~s "ST_aw_3_1"
<STATE> 4
~s "ST_aw_4_1"
~t "T_aw"
<ENDHMM>
~h "ax"
<BEGINHMM>
<NUMSTATES> 5
<STATE> 2
~s "ST_ax_2_1"
<STATE> 3
~s "ST_ax_3_1"
<STATE> 4
~s "ST_ax_4_1"
~t "T_ax"
<ENDHMM>
~h "ay"
<BEGINHMM>
<NUMSTATES> 5
<STATE> 2
~s "ST_ay_2_1"
<STATE> 3
~s "ST_ay_3_1"
<STATE> 4
~s "ST_ay_4_1"
~t "T_ay"
<ENDHMM>
~h "ch"
<BEGINHMM>
<NUMSTATES> 5
<STATE> 2
~s "ST_ch_2_1"
<STATE> 3
~s "ST_ch_3_1"
<STATE> 4
~s "ST_ch_4_1"
~t "T_ch"
<ENDHMM>
~h "dh"
<BEGINHMM>
<NUMSTATES> 5
<STATE> 2
~s "ST_dh_2_1"
<STATE> 3
~s "ST_dh_3_1"
<STATE> 4
~s "ST_dh_4_1"
~t "T_dh"
<ENDHMM>
~h "er"
<BEGINHMM>
<NUMSTATES> 5
<STATE> 2
~s "ST_er_2_1"
<STATE> 3
~s "ST_er_3_1"
<STATE> 4
~s "ST_er_4_1"
~t "T_er"
<ENDHMM>
~h "ey"
<BEGINHMM>
<NUMSTATES> 5
<STATE> 2
~s "ST_ey_2_1"
<STATE> 3
~s "ST_ey_3_1"
<STATE> 4
~s "ST_ey_4_1"
~t "T_ey"
<ENDHMM>
~h "hh"
<BEGINHMM>
<NUMSTATES> 5
<STATE> 2
~s "ST_hh_2_1"
<STATE> 3
~s "ST_hh_3_1"
<STATE> 4
~s "ST_hh_4_1"
~t "T_hh"
<ENDHMM>
~h "ih"
<BEGINHMM>
<NUMSTATES> 5
<STATE> 2
~s "ST_ih_2_1"
<STATE> 3
~s "ST_ih_3_1"
<STATE> 4
~s "ST_ih_4_1"
~t "T_ih"
<ENDHMM>
~h "iy"
<BEGINHMM>
<NUMSTATES> 5
<STATE> 2
~s "ST_iy_2_1"
<STATE> 3
~s "ST_iy_3_1"
<STATE> 4
~s "ST_iy_4_1"
~t "T_iy"
<ENDHMM>
~h "jh"
<BEGINHMM>
<NUMSTATES> 5
<STATE> 2
~s "ST_jh_2_1"
<STATE> 3
~s "ST_jh_3_1"
<STATE> 4
~s "ST_jh_4_1"
~t "T_jh"
<ENDHMM>
~h "ng"
<BEGINHMM>
<NUMSTATES> 5
<STATE> 2
~s "ST_ng_2_1"
<STATE> 3
~s "ST_ng_3_1"
<STATE> 4
~s "ST_ng_4_1"
~t "T_ng"
<ENDHMM>
~h "ow"
<BEGINHMM>
<NUMSTATES> 5
<STATE> 2
~s "ST_ow_2_1"
<STATE> 3
~s "ST_ow_3_1"
<STATE> 4
~s "ST_ow_4_1"
~t "T_ow"
<ENDHMM>
~h "oy"
<BEGINHMM>
<NUMSTATES> 5
<STATE> 2
~s "ST_oy_2_1"
<STATE> 3
~s "ST_oy_3_1"
<STATE> 4
~s "ST_oy_4_1"
~t "T_oy"
<ENDHMM>
~h "sh"
<BEGINHMM>
<NUMSTATES> 5
<STATE> 2
~s "ST_sh_2_1"
<STATE> 3
~s "ST_sh_3_1"
<STATE> 4
~s "ST_sh_4_1"
~t "T_sh"
<ENDHMM>
~h "sp"
<BEGINHMM>
<NUMSTATES> 3
<STATE> 2
~s "ST_sil_3_1"
<TRANSP> 3
 0.000000e+00 6.031522e-01 3.968478e-01
 0.000000e+00 9.631043e-01 3.689567e-02
 0.000000e+00 0.000000e+00 0.000000e+00
<ENDHMM>
~h "th"
<BEGINHMM>
<NUMSTATES> 5
<STATE> 2
~s "ST_th_2_1"
<STATE> 3
~s "ST_th_3_1"
<STATE> 4
~s "ST_th_4_1"
~t "T_th"
<ENDHMM>
~h "uh"
<BEGINHMM>
<NUMSTATES> 5
<STATE> 2
~s "ST_uh_2_1"
<STATE> 3
~s "ST_uh_3_1"
<STATE> 4
~s "ST_uh_4_1"
~t "T_uh"
<ENDHMM>
~h "uw"
<BEGINHMM>
<NUMSTATES> 5
<STATE> 2
~s "ST_uw_2_1"
<STATE> 3
~s "ST_uw_3_1"
<STATE> 4
~s "ST_uw_4_1"
~t "T_uw"
<ENDHMM>
~h "zh"
<BEGINHMM>
<NUMSTATES> 5
<STATE> 2
~s "ST_zh_2_1"
<STATE> 3
~s "ST_zh_3_1"
<STATE> 4
~s "ST_zh_4_1"
~t "T_zh"
<ENDHMM>
~h "k-l+ih"
<BEGINHMM>
<NUMSTATES> 5
<STATE> 2
~s "ST_l_2_1"
<STATE> 3
~s "ST_l_3_1"
<STATE> 4
~s "ST_l_4_2"
~t "T_l"
<ENDHMM>
~h "sil"
<BEGINHMM>
<NUMSTATES> 5
<STATE> 2
~s "ST_sil_2_1"
<STATE> 3
~s "ST_sil_3_1"
<STATE> 4
~s "ST_sil_4_1"
<TRANSP> 5
 0.000000e+00 1.000000e+00 0.000000e+00 0.000000e+00 0.000000e+00
 0.000000e+00 9.037899e-01 5.288334e-02 4.332675e-02 0.000000e+00
 0.000000e+00 0.000000e+00 9.562260e-01 4.377403e-02 0.000000e+00
 0.000000e+00 1.596910e-01 0.000000e+00 6.791776e-01 1.611314e-01
 0.000000e+00 0.000000e+00 0.000000e+00 0.000000e+00 0.000000e+00
<ENDHMM>
