~o
<STREAMINFO> 1 25
<VECSIZE> 25<NULLD><MFCC_D_N_Z_0><DIAGC>
~h "b"
<BEGINHMM>
<NUMSTATES> 5
<STATE> 2
<MEAN> 25
 -5.328694e+00 6.386578e-02 -2.379311e-01 -8.889127e-01 2.827281e-01 3.412081e+00 2.713568e+00 1.883165e+00 1.935761e+00 2.430161e+00 2.080583e+00 7.950000e-01 -1.538527e-01 -7.798489e-02 -1.566693e-03 3.191794e-02 4.139712e-02 4.893099e-02 3.230388e-02 3.878758e-02 5.299781e-02 9.473683e-02 1.033467e-01 3.615081e-02 -9.198194e-02
<VARIANCE> 25
 8.673946e+00 6.788847e+00 4.956987e+00 6.142173e+00 6.382491e+00 6.141212e+00 6.798977e+00 7.038693e+00 7.444321e+00 7.505177e+00 6.706439e+00 6.331196e+00 1.301232e-01 2.089916e-01 2.669808e-01 3.227648e-01 3.996325e-01 4.306042e-01 5.161496e-01 6.261732e-01 5.924036e-01 6.381440e-01 5.803024e-01 5.263474e-01 5.291186e-02
<GCONST> 5.470358e+01
<STATE> 3
<MEAN> 25
 -5.441655e+00 4.969633e-01 6.933745e-01 5.154316e-01 2.122988e+00 4.949035e+00 3.761135e+00 2.438526e+00 2.267733e+00 2.718985e+00 2.296865e+00 6.528714e-01 9.830821e-02 1.220918e-01 2.260075e-01 3.075530e-01 2.627052e-01 1.832706e-01 1.463417e-01 1.525784e-02 -1.039712e-01 -1.305757e-01 -2.103352e-01 -1.533703e-01 5.305627e-02
<VARIANCE> 25
 8.560593e+00 9.730639e+00 7.399636e+00 8.735929e+00 1.116324e+01 7.513929e+00 5.430388e+00 6.418357e+00 5.366499e+00 6.908782e+00 7.911216e+00 6.112530e+00 1.680658e-01 3.660515e-01 3.901451e-01 4.628920e-01 5.735343e-01 5.698642e-01 5.172379e-01 5.404470e-01 4.807057e-01 6.082128e-01 6.572462e-01 5.225043e-01 5.778133e-02
<GCONST> 5.796798e+01
<STATE> 4
<MEAN> 25
 -9.840708e-01 6.799285e+00 6.664126e+00 4.872609e+00 5.137489e+00 7.319141e+00 5.220770e+00 2.316650e+00 9.839008e-01 6.761153e-01 -7.975346e-01 -3.173446e+00 2.221500e-01 1.059741e-01 1.662454e-01 1.976738e-01 8.534119e-02 1.870129e-02 7.570693e-02 -7.219321e-02 -7.625309e-02 -1.173146e-01 -1.958632e-01 -1.879579e-01 1.531377e-01
<VARIANCE> 25
 8.139677e+00 1.136646e+01 9.838543e+00 1.000201e+01 7.819443e+00 6.926590e+00 9.130503e+00 6.969318e+00 6.660938e+00 7.194530e+00 8.515501e+00 9.297110e+00 4.848309e-01 1.005577e+00 7.862923e-01 7.230769e-01 6.473157e-01 7.135118e-01 6.592443e-01 7.037899e-01 5.402307e-01 6.138422e-01 9.369339e-01 1.027777e+00 1.572154e-01
<GCONST> 6.563461e+01
<TRANSP> 5
 0.000000e+00 1.000000e+00 0.000000e+00 0.000000e+00 0.000000e+00
 0.000000e+00 9.468263e-01 5.317360e-02 0.000000e+00 0.000000e+00
 0.000000e+00 0.000000e+00 7.161673e-01 2.838327e-01 0.000000e+00
 0.000000e+00 0.000000e+00 0.000000e+00 8.303193e-01 1.696807e-01
 0.000000e+00 0.000000e+00 0.000000e+00 0.000000e+00 0.000000e+00
<ENDHMM>
~h "d"
<BEGINHMM>
<NUMSTATES> 5
<STATE> 2
<MEAN> 25
 5.020598e+00 4.859089e+00 2.080929e+00 1.072109e+00 1.077019e-01 4.529791e-01 9.060135e-01 -1.069413e-02 -2.601920e+00 -4.205940e+00 -3.177822e+00 -9.346482e-01 -1.123617e+00 1.314330e+00 1.413806e+00 7.521988e-01 9.575537e-01 1.476986e+00 1.234412e+00 7.006860e-01 3.627315e-01 4.905680e-01 4.582603e-01 -2.690603e-01 -1.273464e+00
<VARIANCE> 25
 2.753291e+01 1.584580e+01 1.842079e+01 3.403166e+01 3.796797e+01 3.105728e+01 1.752663e+01 1.913826e+01 1.669196e+01 2.242208e+01 1.159337e+01 1.451895e+01 1.947059e+00 2.259205e+00 1.357582e+00 1.987544e+00 1.557526e+00 2.633003e+00 2.577526e+00 1.552903e+00 1.235431e+00 2.101542e+00 1.903754e+00 1.488740e+00 1.457788e+00
<GCONST> 9.004971e+01
<STATE> 3
<MEAN> 25
 5.301430e-01 7.437620e+00 6.699246e+00 4.573552e+00 4.439658e+00 5.317721e+00 3.541872e+00 9.271587e-01 -1.402461e+00 -1.757868e+00 -1.538143e+00 -2.299847e+00 -4.415220e-01 -1.211325e-01 9.761434e-02 7.910908e-02 1.134009e-01 3.277911e-01 3.070589e-01 1.465092e-01 6.942094e-02 2.504396e-01 2.223307e-01 -1.854593e-02 -2.581165e-01
<VARIANCE> 25
 6.200109e+00 5.464961e+00 6.907912e+00 1.113421e+01 1.270301e+01 1.017615e+01 7.541176e+00 8.123182e+00 8.432998e+00 9.542676e+00 5.648371e+00 1.055737e+01 5.457267e-01 6.398337e-01 5.821629e-01 5.440444e-01 6.373786e-01 8.638762e-01 8.178044e-01 9.043258e-01 6.556609e-01 8.736395e-01 7.550942e-01 7.659464e-01 2.400748e-01
<GCONST> 6.563376e+01
<STATE> 4
<MEAN> 25
 -2.668472e+00 1.139260e+00 1.828070e+00 -9.142029e-02 3.184064e-01 3.546033e+00 3.883126e+00 9.867851e-01 -3.066254e-01 1.210462e-01 3.414103e-01 -1.668612e-01 -3.523766e-02 -8.929688e-01 -5.319735e-01 -3.969707e-01 -3.572597e-01 -4.233303e-01 -1.604214e-01 -1.463289e-01 -2.466908e-02 -7.280000e-03 -4.910092e-02 1.108399e-01 4.091731e-01
<VARIANCE> 25
 1.175933e+01 2.934490e+01 1.802486e+01 1.965165e+01 2.141178e+01 1.656355e+01 1.278510e+01 1.444566e+01 2.419567e+01 2.075187e+01 9.097450e+00 1.095666e+01 8.622773e-01 2.783333e+00 1.307703e+00 1.627811e+00 1.498878e+00 1.909824e+00 1.574277e+00 1.084740e+00 1.519616e+00 1.467446e+00 1.157033e+00 7.899954e-01 1.899640e+00
<GCONST> 8.414279e+01
<TRANSP> 5
 0.000000e+00 1.000000e+00 0.000000e+00 0.000000e+00 0.000000e+00
 0.000000e+00 6.071651e-01 3.928349e-01 0.000000e+00 0.000000e+00
 0.000000e+00 0.000000e+00 7.703783e-01 2.296217e-01 0.000000e+00
 0.000000e+00 0.000000e+00 0.000000e+00 8.470387e-01 1.529613e-01
 0.000000e+00 0.000000e+00 0.000000e+00 0.000000e+00 0.000000e+00
<ENDHMM>
~h "f"
<BEGINHMM>
<NUMSTATES> 5
<STATE> 2
<MEAN> 25
 -1.049440e+01 -1.061422e+01 6.124155e+00 -6.175499e-01 -3.427051e+00 -7.896127e-01 9.091236e+00 -1.056844e-01 -3.071010e+00 2.577346e+00 3.365434e+00 1.457526e+00 -3.402883e-01 -6.620202e-01 5.505344e-01 -3.314206e-01 -6.915826e-02 -3.739827e-01 2.944502e-01 -1.867194e-02 -1.091990e-01 -3.393819e-01 -1.606448e-02 -2.137187e-01 8.899765e-01
<VARIANCE> 25
 2.535881e+01 2.734130e+01 3.165562e+01 1.014349e+01 6.276897e+00 9.760738e+00 2.419574e+01 9.803265e+00 2.012209e+01 1.330719e+01 1.051819e+01 8.816774e+00 1.167898e+00 1.687667e+00 1.286039e+00 6.697847e-01 1.176400e+00 6.214352e-01 1.489182e+00 8.162139e-01 2.666311e+00 1.868803e+00 7.771317e-01 1.159556e+00 3.090908e-01
<GCONST> 7.870319e+01
<STATE> 3
<MEAN> 25
 -8.186074e+00 -9.255961e+00 7.449227e+00 -7.819315e-01 -1.873598e+00 -3.109742e+00 6.431113e+00 5.252743e-02 -3.799421e+00 -1.006857e+00 1.584454e+00 -1.170076e+00 3.383796e+00 1.782508e+00 -6.255049e-01 5.613856e-01 -6.363002e-01 -1.682003e+00 -2.224775e+00 4.090468e-01 -2.987072e-01 -1.537024e+00 -2.129766e+00 -1.198448e+00 6.464480e-01
<VARIANCE> 25
 4.596290e+01 5.355512e+01 2.671012e+01 1.349919e+01 5.175376e+00 1.584873e+01 2.295728e+01 7.590262e+00 1.909460e+01 1.260065e+01 1.456403e+01 2.013106e+01 7.168056e+00 3.763837e+00 4.100642e+00 2.686239e+00 1.101712e+00 3.468448e+00 6.695105e+00 2.248907e+00 2.805209e+00 2.218744e+00 2.836691e+00 7.267327e-01 2.760168e-01
<GCONST> 9.138595e+01
<STATE> 4
<MEAN> 25
 6.557460e+00 1.221952e+00 1.705662e+00 -6.489480e-01 -7.307791e+00 -1.112338e+01 -6.006512e+00 -6.933293e-01 2.381352e-01 -1.869031e+00 -2.825038e+00 -1.728172e+00 -3.038794e-02 3.728819e-01 -7.406038e-02 -2.106732e-02 2.269412e-01 3.604639e-01 -5.370921e-02 -1.548792e-01 -7.280149e-03 1.476773e-01 1.156282e-01 4.391208e-02 -2.857534e-01
<VARIANCE> 25
 4.982913e+01 2.481118e+01 1.470297e+01 1.701794e+01 2.247741e+01 6.643446e+01 6.824873e+01 2.812987e+01 1.583513e+01 3.176123e+01 2.282580e+01 7.646169e+00 4.684674e+00 3.487164e+00 2.145054e+00 1.994252e+00 2.674348e+00 5.734434e+00 7.027785e+00 3.859246e+00 2.632491e+00 3.441262e+00 3.195883e+00 1.049277e+00 2.101102e+00
<GCONST> 9.927399e+01
<TRANSP> 5
 0.000000e+00 1.000000e+00 0.000000e+00 0.000000e+00 0.000000e+00
 0.000000e+00 7.087217e-01 2.912783e-01 0.000000e+00 0.000000e+00
 0.000000e+00 0.000000e+00 6.429811e-01 3.570189e-01 0.000000e+00
 0.000000e+00 0.000000e+00 0.000000e+00 9.396384e-01 6.036155e-02
 0.000000e+00 0.000000e+00 0.000000e+00 0.000000e+00 0.000000e+00
<ENDHMM>
~h "g"
<BEGINHMM>
<NUMSTATES> 5
<STATE> 2
<MEAN> 25
 1.031343e+01 9.821763e-01 -5.858233e+00 -1.949375e+00 1.911306e+00 -1.773102e+00 -4.108525e+00 -3.149523e+00 -5.058202e+00 -6.081676e+00 -2.546132e+00 6.769950e-01 2.959572e-01 -1.927361e-01 -6.393169e-01 -7.735632e-01 -5.314894e-01 -6.581063e-01 -3.756216e-01 1.099338e-01 3.281113e-01 4.074089e-01 3.718125e-01 4.733494e-01 2.988826e-01
<VARIANCE> 25
 5.346468e+01 1.732043e+01 3.943954e+01 2.577608e+01 2.937302e+01 2.707301e+01 2.806612e+01 1.658866e+01 1.853614e+01 1.828956e+01 9.523418e+00 1.294553e+01 1.071273e+00 1.265740e+00 1.580026e+00 1.549098e+00 2.228959e+00 2.048159e+00 1.773233e+00 2.169993e+00 1.847687e+00 1.825851e+00 7.614778e-01 1.094330e+00 7.356333e-01
<GCONST> 8.795676e+01
<STATE> 3
<MEAN> 25
 1.114874e+01 -2.735696e-01 -7.805582e+00 -4.958204e+00 -3.888535e+00 -6.879185e+00 -3.636600e+00 1.134749e+00 -1.590761e+00 -3.681413e+00 -2.572830e-01 3.030568e+00 -1.763083e-01 3.102602e-01 2.707408e-01 -8.881092e-05 -4.239374e-01 -9.506904e-02 2.710317e-01 4.062561e-01 2.814149e-01 2.519710e-01 1.981470e-01 -4.678151e-02 -3.333616e-01
<VARIANCE> 25
 5.039138e+01 2.032106e+01 4.057930e+01 2.121792e+01 2.920700e+01 3.479142e+01 1.539407e+01 1.768974e+01 1.519857e+01 9.152483e+00 6.125178e+00 1.258601e+01 4.388632e-01 8.318382e-01 1.058869e+00 4.111298e-01 6.860031e-01 1.211612e+00 6.712767e-01 1.096248e+00 7.013676e-01 6.143306e-01 6.161665e-01 6.864280e-01 3.608558e-01
<GCONST> 7.639482e+01
<STATE> 4
<MEAN> 25
 -1.759947e+00 3.763162e+00 3.937518e+00 3.132205e+00 3.568989e+00 5.229635e+00 3.395333e+00 7.309401e-01 9.877843e-02 3.255740e-01 -3.031034e-01 -1.605382e+00 -4.060380e-02 2.265087e-01 3.076895e-01 3.318622e-01 2.377752e-01 1.992334e-01 8.662081e-02 7.852264e-02 7.003076e-02 1.567264e-02 -1.181530e-01 -1.050792e-01 -8.297920e-02
<VARIANCE> 25
 3.245599e+01 2.542250e+01 3.489654e+01 2.958161e+01 2.428544e+01 2.585710e+01 1.316823e+01 8.800383e+00 9.897164e+00 1.124639e+01 6.619224e+00 8.435405e+00 6.205938e-01 1.495222e+00 1.124187e+00 9.083658e-01 9.798355e-01 1.081561e+00 9.780222e-01 1.199764e+00 1.040385e+00 8.540990e-01 6.214661e-01 8.119422e-01 3.844287e-01
<GCONST> 7.793772e+01
<TRANSP> 5
 0.000000e+00 1.000000e+00 0.000000e+00 0.000000e+00 0.000000e+00
 0.000000e+00 7.027612e-01 2.972388e-01 0.000000e+00 0.000000e+00
 0.000000e+00 0.000000e+00 7.710195e-01 2.289805e-01 0.000000e+00
 0.000000e+00 0.000000e+00 0.000000e+00 8.502970e-01 1.497030e-01
 0.000000e+00 0.000000e+00 0.000000e+00 0.000000e+00 0.000000e+00
<ENDHMM>
~h "k"
<BEGINHMM>
<NUMSTATES> 5
<STATE> 2
<MEAN> 25
 -3.309907e+00 -2.644247e-01 -2.876099e-01 2.400976e-01 1.019556e+00 3.191740e+00 3.277419e+00 1.283995e+00 -7.551265e-02 1.138307e+00 9.453818e-01 -9.397526e-01 1.809129e-01 -3.782683e-01 -4.963408e-01 -8.887553e-01 -9.888308e-01 -8.549058e-01 -9.532851e-02 2.308843e-02 3.317589e-02 6.637532e-02 1.513507e-02 -3.313687e-01 5.229204e-01
<VARIANCE> 25
 1.734705e+01 1.781816e+01 1.277921e+01 1.661324e+01 2.111848e+01 1.841129e+01 2.754136e+01 2.075760e+01 1.591543e+01 1.424440e+01 1.326570e+01 1.044566e+01 1.803401e+00 1.500357e+00 1.792886e+00 2.462003e+00 4.146132e+00 2.821508e+00 2.704805e+00 1.551602e+00 1.645180e+00 2.083776e+00 1.261768e+00 1.140860e+00 2.248645e+00
<GCONST> 8.848591e+01
<STATE> 3
<MEAN> 25
 9.255649e-01 -2.030332e+00 -3.640229e+00 -4.908049e+00 -4.237753e+00 -1.271301e+00 3.339614e+00 9.879493e-01 -1.408817e+00 3.502837e-01 8.139225e-01 -2.181192e+00 9.263894e-01 -2.461189e-01 -2.212203e-01 -6.826261e-01 -1.048590e+00 -7.984281e-01 1.023484e-01 1.512944e-01 -1.004253e-01 -3.112479e-01 -4.112669e-01 -5.166749e-01 1.158273e+00
<VARIANCE> 25
 2.159974e+01 3.276329e+01 2.546792e+01 4.485144e+01 9.539535e+01 4.482007e+01 4.450375e+01 3.028104e+01 4.666138e+01 2.797913e+01 2.249253e+01 1.624073e+01 2.815127e+00 2.616768e+00 2.337584e+00 5.526008e+00 8.869933e+00 5.916232e+00 3.676228e+00 1.520601e+00 2.995469e+00 3.057459e+00 2.348003e+00 2.199503e+00 3.238715e+00
<GCONST> 1.034601e+02
<STATE> 4
<MEAN> 25
 1.813749e-01 -8.253357e-01 -1.064247e+00 -3.051350e+00 -4.486769e+00 -1.160894e+00 3.341673e+00 2.004033e+00 1.139179e-02 1.087441e+00 1.175734e+00 -1.904279e+00 4.007364e-01 1.415603e-02 6.253872e-01 9.356862e-01 5.178519e-01 -4.279624e-01 -1.061311e+00 -2.239017e-01 2.059941e-01 -4.920568e-02 -2.013865e-01 7.391040e-02 2.191962e-01
<VARIANCE> 25
 3.695992e+01 1.497501e+01 1.683237e+01 3.225743e+01 6.167166e+01 4.842805e+01 2.968068e+01 2.147820e+01 3.561753e+01 3.464336e+01 2.730609e+01 1.668730e+01 2.206378e+00 2.024241e+00 1.499708e+00 3.341513e+00 4.065444e+00 2.878538e+00 4.240862e+00 1.466653e+00 2.623466e+00 2.438071e+00 1.959656e+00 1.180481e+00 9.777930e-01
<GCONST> 9.632705e+01
<TRANSP> 5
 0.000000e+00 1.000000e+00 0.000000e+00 0.000000e+00 0.000000e+00
 0.000000e+00 5.918046e-01 4.081954e-01 0.000000e+00 0.000000e+00
 0.000000e+00 0.000000e+00 4.946266e-01 5.053734e-01 0.000000e+00
 0.000000e+00 0.000000e+00 0.000000e+00 5.178334e-01 4.821666e-01
 0.000000e+00 0.000000e+00 0.000000e+00 0.000000e+00 0.000000e+00
<ENDHMM>
~h "l"
<BEGINHMM>
<NUMSTATES> 5
<STATE> 2
<MEAN> 25
 8.325868e+00 -1.680751e-01 -1.373924e+00 6.255381e-01 -1.967607e+00 -6.220659e+00 -5.130018e+00 -1.603656e+00 -1.032375e+00 -4.056340e+00 -5.203053e+00 -2.551260e+00 1.281615e+00 -1.601691e-01 -3.123363e-01 7.150487e-01 3.541933e-01 -9.010006e-01 -1.067912e+00 1.244744e-02 -4.137743e-01 -1.643325e+00 -1.447063e+00 -3.553884e-01 7.486747e-01
<VARIANCE> 25
 3.777267e+01 1.870766e+01 1.986607e+01 2.357656e+01 3.346772e+01 5.373354e+01 4.210624e+01 2.091245e+01 3.062264e+01 4.378757e+01 3.427221e+01 2.235534e+01 2.196554e+00 1.947191e+00 1.659289e+00 1.871885e+00 2.112922e+00 3.216274e+00 3.567549e+00 3.459245e+00 3.709938e+00 4.047074e+00 2.961730e+00 2.027388e+00 1.943116e+00
<GCONST> 9.895601e+01
<STATE> 3
<MEAN> 25
 1.095475e+01 -2.556383e+00 -1.715203e+00 1.450040e+00 -3.444802e+00 -9.356332e+00 -6.876217e+00 -8.074195e-01 -3.430609e+00 -9.060407e+00 -6.838137e+00 -1.633494e+00 -1.214765e-02 5.474071e-02 9.975354e-02 2.046483e-01 -8.646354e-02 -2.363718e-01 -3.000499e-02 3.579379e-01 2.001120e-01 -1.855002e-01 -9.939035e-02 6.284256e-02 -1.197564e-01
<VARIANCE> 25
 2.102201e+01 9.062254e+00 1.553121e+01 2.412980e+01 2.046236e+01 2.486778e+01 2.533323e+01 2.188949e+01 3.503653e+01 4.274892e+01 3.295990e+01 2.230781e+01 3.494088e-01 1.033068e+00 1.056970e+00 1.592214e+00 1.357048e+00 1.500575e+00 1.609645e+00 2.306038e+00 2.922865e+00 2.503628e+00 2.768698e+00 2.174985e+00 6.927273e-01
<GCONST> 8.852799e+01
<STATE> 4
<MEAN> 25
 9.359266e+00 3.256886e+00 -2.035073e-01 2.183056e+00 -1.786520e+00 -8.194807e+00 -6.989577e+00 6.725930e-01 1.309031e+00 -5.342781e+00 -8.380762e+00 -5.232309e+00 -5.880119e-01 2.837084e-01 4.299467e-01 8.465239e-02 2.631570e-01 7.124608e-01 6.058989e-01 5.713113e-03 -8.569922e-02 4.205637e-01 5.206112e-01 1.007216e-01 -4.941968e-01
<VARIANCE> 25
 2.321787e+01 2.272789e+01 2.324927e+01 1.473570e+01 1.835544e+01 4.234549e+01 3.853842e+01 1.350798e+01 2.350087e+01 3.448422e+01 2.948416e+01 2.759112e+01 5.483309e-01 9.602084e-01 9.368039e-01 7.389232e-01 7.415094e-01 1.311735e+00 1.564068e+00 1.138363e+00 1.406558e+00 1.528154e+00 1.738587e+00 1.698615e+00 3.062047e-01
<GCONST> 8.456603e+01
<TRANSP> 5
 0.000000e+00 1.000000e+00 0.000000e+00 0.000000e+00 0.000000e+00
 0.000000e+00 5.730575e-01 4.269424e-01 0.000000e+00 0.000000e+00
 0.000000e+00 0.000000e+00 7.494472e-01 2.505529e-01 0.000000e+00
 0.000000e+00 0.000000e+00 0.000000e+00 8.764714e-01 1.235286e-01
 0.000000e+00 0.000000e+00 0.000000e+00 0.000000e+00 0.000000e+00
<ENDHMM>
~h "m"
<BEGINHMM>
<NUMSTATES> 5
<STATE> 2
<MEAN> 25
 5.657244e-01 3.431136e+00 1.635419e+00 -7.252638e-01 5.071657e-01 4.949405e+00 3.766844e+00 8.705428e-01 2.191219e+00 3.135388e+00 -8.436764e-01 -3.269639e+00 -1.234934e-02 3.415912e-01 5.098369e-01 7.542500e-01 1.121226e+00 1.089793e+00 2.840558e-01 -4.120421e-01 -4.973682e-01 -1.463042e-01 7.846119e-02 -3.092276e-01 -9.872751e-02
<VARIANCE> 25
 4.473710e+01 1.041714e+01 1.109400e+01 1.166917e+01 1.652101e+01 1.089740e+01 1.295679e+01 1.386110e+01 1.016977e+01 8.588717e+00 2.374594e+01 1.939799e+01 1.277243e+00 8.377501e-01 8.474383e-01 9.852955e-01 2.471834e+00 2.659612e+00 9.010881e-01 1.039696e+00 1.072630e+00 8.359074e-01 1.272370e+00 1.790291e+00 4.342404e-01
<GCONST> 7.952607e+01
<STATE> 3
<MEAN> 25
 5.140311e+00 6.704147e+00 2.464619e+00 1.806628e+00 4.489566e+00 7.345447e+00 2.192696e+00 -3.705741e+00 -1.226614e+00 1.497343e+00 -1.587093e+00 -6.022898e+00 1.716683e-01 -4.306195e-03 -2.515399e-01 8.137886e-02 3.931340e-01 2.804562e-01 -4.672276e-02 -4.455616e-01 -6.085664e-01 -5.056435e-02 4.172285e-01 1.934513e-02 8.293849e-02
<VARIANCE> 25
 1.110378e+01 3.365558e+00 1.070202e+01 9.130998e+00 1.756935e+01 3.224858e+01 1.269108e+01 1.485684e+01 1.595990e+01 1.322094e+01 1.360624e+01 7.211071e+00 8.224451e-01 4.510803e-01 7.987310e-01 4.312240e-01 8.201315e-01 1.276984e+00 5.700892e-01 1.345207e+00 6.580545e-01 3.512851e-01 7.832244e-01 8.086686e-01 3.690985e-01
<GCONST> 7.047227e+01
<STATE> 4
<MEAN> 25
 6.869850e+00 5.166465e+00 -1.216855e+00 2.759637e-01 5.952396e+00 8.598458e+00 1.871348e+00 -5.952651e+00 -5.709352e+00 -4.621873e-01 7.412772e-01 -4.115112e+00 3.787803e-01 -4.667158e-01 -6.144051e-01 -3.176832e-01 -5.129490e-01 -1.116572e+00 -7.002764e-01 1.670323e-01 -6.907187e-02 -5.583286e-01 2.548844e-04 7.923700e-01 3.800342e-01
<VARIANCE> 25
 8.097685e+00 3.105572e+00 8.587014e+00 8.146343e+00 2.739988e+01 4.654698e+01 1.999087e+01 2.036339e+01 1.753445e+01 1.212736e+01 2.304260e+01 1.649982e+01 6.544552e-01 5.686663e-01 6.466982e-01 1.311335e+00 1.174314e+00 2.861712e+00 1.752323e+00 8.249207e-01 8.354166e-01 9.056514e-01 7.644129e-01 1.826186e+00 4.075198e-01
<GCONST> 7.746420e+01
<TRANSP> 5
 0.000000e+00 1.000000e+00 0.000000e+00 0.000000e+00 0.000000e+00
 0.000000e+00 7.703804e-01 2.296196e-01 0.000000e+00 0.000000e+00
 0.000000e+00 0.000000e+00 7.304510e-01 2.695490e-01 0.000000e+00
 0.000000e+00 0.000000e+00 0.000000e+00 7.659324e-01 2.340676e-01
 0.000000e+00 0.000000e+00 0.000000e+00 0.000000e+00 0.000000e+00
<ENDHMM>
~h "n"
<BEGINHMM>
<NUMSTATES> 5
<STATE> 2
<MEAN> 25
 9.069694e+00 2.413719e+00 -2.212164e+00 1.241578e+00 1.721687e+00 -4.512739e+00 -6.247342e+00 -8.138422e-01 -1.329365e+00 -4.399635e+00 -3.444073e+00 -1.130534e+00 -5.466419e-01 9.588505e-01 5.889270e-01 -1.513699e-01 5.988548e-01 2.188273e+00 1.268981e+00 -8.054278e-01 -4.195790e-01 6.910135e-01 2.367530e-01 -8.998474e-01 -7.025965e-01
<VARIANCE> 25
 9.888658e+00 1.342607e+01 1.478642e+01 2.208103e+01 3.433757e+01 4.446504e+01 3.716707e+01 2.523143e+01 1.992122e+01 2.032451e+01 2.493374e+01 2.369450e+01 8.931442e-01 1.096459e+00 1.079669e+00 2.803134e+00 3.143369e+00 4.220040e+00 3.654781e+00 2.792964e+00 1.519313e+00 1.822035e+00 1.316244e+00 2.385049e+00 5.940679e-01
<GCONST> 9.081967e+01
<STATE> 3
<MEAN> 25
 7.211610e+00 5.465556e+00 4.063158e-01 1.801426e+00 3.966167e+00 3.301540e+00 -1.376911e+00 -3.684933e+00 -3.355524e+00 -2.169630e+00 -2.325460e+00 -4.095966e+00 -6.438118e-01 4.894601e-01 6.088977e-01 1.586134e-01 3.093537e-01 1.169360e+00 8.686163e-01 -1.954765e-01 -6.350845e-03 6.532578e-01 3.186950e-01 -1.310441e-01 -5.674533e-01
<VARIANCE> 25
 8.217375e+00 1.036729e+01 1.297786e+01 9.363831e+00 2.086779e+01 2.780159e+01 1.513137e+01 1.872553e+01 1.205147e+01 9.064573e+00 1.362363e+01 1.515526e+01 4.062571e-01 6.501407e-01 7.506850e-01 1.092647e+00 1.291381e+00 1.411675e+00 1.579558e+00 1.185439e+00 9.801733e-01 8.604289e-01 1.041952e+00 1.215941e+00 1.637805e-01
<GCONST> 7.518090e+01
<STATE> 4
<MEAN> 25
 -1.306544e+00 2.871473e+00 1.244947e+00 7.204106e-01 2.526565e+00 4.914567e+00 2.949657e+00 3.596205e-01 3.869259e-02 9.994946e-01 3.557186e-01 -1.046034e+00 -4.027758e-01 -1.691816e-01 -1.045667e-03 -9.121697e-02 -1.301187e-01 -3.154106e-02 1.326387e-01 1.959925e-01 1.618424e-01 1.374034e-01 1.507968e-01 1.796277e-01 -2.266873e-01
<VARIANCE> 25
 2.193264e+01 1.330229e+01 8.440177e+00 8.482207e+00 1.286522e+01 1.183435e+01 1.138757e+01 1.342112e+01 1.040874e+01 8.813157e+00 9.011917e+00 1.114497e+01 3.321787e-01 4.071995e-01 6.186041e-01 5.226293e-01 6.316352e-01 7.004160e-01 7.546732e-01 8.034583e-01 7.251494e-01 7.050927e-01 6.669325e-01 6.577439e-01 1.647896e-01
<GCONST> 6.733369e+01
<TRANSP> 5
 0.000000e+00 1.000000e+00 0.000000e+00 0.000000e+00 0.000000e+00
 0.000000e+00 6.548019e-01 3.451982e-01 0.000000e+00 0.000000e+00
 0.000000e+00 0.000000e+00 5.608882e-01 4.391117e-01 0.000000e+00
 0.000000e+00 0.000000e+00 0.000000e+00 9.421850e-01 5.781504e-02
 0.000000e+00 0.000000e+00 0.000000e+00 0.000000e+00 0.000000e+00
<ENDHMM>
~h "p"
<BEGINHMM>
<NUMSTATES> 5
<STATE> 2
<MEAN> 25
 -4.167807e+00 4.881859e-02 -7.667758e-01 -9.792984e-01 9.977577e-01 3.921265e+00 3.746835e+00 2.219990e+00 1.778693e+00 1.968405e+00 1.337859e+00 5.129393e-01 -1.301894e-01 -6.095189e-02 -5.461416e-02 -6.341767e-02 -2.087383e-02 5.635445e-02 5.531266e-02 8.881181e-02 1.196259e-01 1.052493e-01 8.349000e-02 6.628561e-02 -9.265909e-02
<VARIANCE> 25
 2.910437e+00 3.498052e+00 4.436688e+00 6.205272e+00 1.004044e+01 7.428653e+00 7.791909e+00 8.822477e+00 8.007442e+00 6.452583e+00 6.672906e+00 6.953853e+00 1.974040e-01 2.366644e-01 3.380460e-01 3.807558e-01 4.451984e-01 5.294863e-01 4.934855e-01 6.842700e-01 6.264284e-01 6.036234e-01 5.748988e-01 6.850098e-01 1.813987e-01
<GCONST> 5.665130e+01
<STATE> 3
<MEAN> 25
 -5.129882e+00 1.507276e-02 -5.325073e-01 -1.238412e+00 5.780762e-01 4.168550e+00 4.095418e+00 2.743850e+00 2.541692e+00 3.063123e+00 2.293062e+00 1.332965e+00 6.525004e-02 -9.063609e-02 -3.557111e-02 7.840225e-02 7.515873e-02 5.944497e-02 6.749405e-02 -2.591765e-02 -3.514080e-02 -1.079528e-02 -1.029819e-01 -4.174991e-02 8.547392e-02
<VARIANCE> 25
 1.263087e+00 2.881157e+00 2.633216e+00 4.011452e+00 9.157217e+00 7.035485e+00 6.234909e+00 7.368921e+00 5.301499e+00 4.953785e+00 4.666903e+00 3.941837e+00 1.730985e-01 1.600015e-01 1.805643e-01 2.800767e-01 4.516042e-01 5.709242e-01 6.076186e-01 5.754033e-01 4.747360e-01 3.764341e-01 4.055205e-01 4.231248e-01 1.006077e-01
<GCONST> 4.901088e+01
<STATE> 4
<MEAN> 25
 -1.689874e+00 3.577090e-01 -2.044209e-01 -9.972072e-01 -7.799002e-01 5.357651e-01 1.349914e+00 4.727792e-01 1.684287e+00 1.788502e+00 9.071605e-01 4.529848e-01 2.623925e+00 4.685408e-01 1.736979e-01 4.602285e-01 -8.792616e-01 -2.522704e+00 -2.199181e+00 -1.062512e+00 -4.673284e-01 -8.324953e-01 -7.900896e-01 -3.303293e-01 1.850369e+00
<VARIANCE> 25
 2.447108e+01 8.003799e+00 7.763692e+00 8.877267e+00 1.513539e+01 3.427177e+01 2.333528e+01 1.544151e+01 7.716533e+00 7.698743e+00 8.529856e+00 6.001720e+00 3.053582e+00 2.048656e+00 1.477688e+00 1.379315e+00 3.444050e+00 6.975603e+00 4.475556e+00 2.660015e+00 1.977132e+00 1.395694e+00 1.375620e+00 9.779206e-01 1.755246e+00
<GCONST> 8.569154e+01
<TRANSP> 5
 0.000000e+00 1.000000e+00 0.000000e+00 0.000000e+00 0.000000e+00
 0.000000e+00 9.537176e-01 4.628246e-02 0.000000e+00 0.000000e+00
 0.000000e+00 0.000000e+00 8.194391e-01 1.805609e-01 0.000000e+00
 0.000000e+00 0.000000e+00 0.000000e+00 5.831963e-01 4.168037e-01
 0.000000e+00 0.000000e+00 0.000000e+00 0.000000e+00 0.000000e+00
<ENDHMM>
~h "r"
<BEGINHMM>
<NUMSTATES> 5
<STATE> 2
<MEAN> 25
 7.965499e+00 3.092394e+00 -6.885507e-01 -4.334314e-01 2.854834e-01 -6.126344e-02 -1.143519e+00 -1.903114e+00 -2.437520e+00 -3.307449e+00 -3.972991e+00 -2.371524e+00 1.074265e+00 -2.236248e-01 -1.181669e+00 -1.172229e+00 -5.459660e-01 -2.725610e-01 -4.243877e-01 -6.482651e-01 -8.606777e-01 -8.267341e-01 -3.569015e-01 2.079863e-01 8.353528e-01
<VARIANCE> 25
 3.662880e+01 2.244897e+01 3.121570e+01 3.978464e+01 3.523977e+01 3.689357e+01 3.872916e+01 1.973135e+01 2.484336e+01 2.557047e+01 1.477987e+01 1.271642e+01 3.440388e+00 3.808889e+00 4.133755e+00 4.288036e+00 3.634582e+00 4.032628e+00 4.426989e+00 1.880019e+00 2.645889e+00 2.435031e+00 1.506781e+00 1.514993e+00 3.116092e+00
<GCONST> 9.935941e+01
<STATE> 3
<MEAN> 25
 1.076593e+01 2.375007e+00 -5.043451e+00 -5.469847e+00 -2.919739e+00 -1.647402e+00 -1.856509e+00 -2.409358e+00 -4.790901e+00 -5.815315e+00 -3.762146e+00 -8.028495e-01 -3.935701e-01 -5.446599e-01 3.376912e-01 -9.657653e-02 -3.448642e-01 -1.022119e-01 -9.169535e-02 -2.701353e-01 9.689081e-02 3.977205e-01 4.163786e-01 2.131844e-01 2.883841e-01
<VARIANCE> 25
 2.761644e+01 3.653738e+01 1.701740e+01 2.057826e+01 2.108859e+01 2.283881e+01 2.817285e+01 1.396223e+01 2.745731e+01 2.756086e+01 1.210243e+01 1.325993e+01 1.768833e+00 3.064255e+00 2.832114e+00 2.061369e+00 2.562933e+00 2.830361e+00 2.710464e+00 1.266086e+00 2.141958e+00 1.297795e+00 1.284869e+00 1.053822e+00 2.073150e+00
<GCONST> 9.130490e+01
<STATE> 4
<MEAN> 25
 8.744637e+00 -1.099127e+00 -4.080822e+00 -6.251421e+00 -6.375836e+00 -4.871517e+00 -3.038942e+00 -1.361230e+00 -7.558891e-01 -1.448852e+00 -1.024147e+00 6.004751e-02 -2.732523e-01 -4.063581e-02 1.975316e-01 1.381862e-01 -2.958172e-02 -8.079438e-02 9.180200e-02 1.800043e-01 2.405701e-01 2.906094e-01 2.814844e-01 1.437130e-01 -1.122705e-01
<VARIANCE> 25
 3.519873e+01 3.761135e+01 1.257058e+01 9.204287e+00 1.496734e+01 3.018790e+01 2.739173e+01 2.257498e+01 3.427357e+01 2.966605e+01 1.113062e+01 1.660897e+01 6.319551e-01 1.235997e+00 7.262576e-01 6.812956e-01 7.833562e-01 1.010212e+00 9.660200e-01 1.135456e+00 1.427104e+00 1.188410e+00 9.086094e-01 1.175424e+00 7.146242e-01
<GCONST> 8.173653e+01
<TRANSP> 5
 0.000000e+00 1.000000e+00 0.000000e+00 0.000000e+00 0.000000e+00
 0.000000e+00 6.804334e-01 3.195666e-01 0.000000e+00 0.000000e+00
 0.000000e+00 0.000000e+00 6.144935e-01 3.855065e-01 0.000000e+00
 0.000000e+00 0.000000e+00 0.000000e+00 8.320398e-01 1.679602e-01
 0.000000e+00 0.000000e+00 0.000000e+00 0.000000e+00 0.000000e+00
<ENDHMM>
~h "s"
<BEGINHMM>
<NUMSTATES> 5
<STATE> 2
<MEAN> 25
 -4.159517e+00 -3.243138e+00 6.648355e+00 2.016431e+00 -6.782542e-01 1.784090e+00 5.955101e+00 -1.435637e+00 -1.588007e+00 2.078520e+00 -1.402579e-01 -8.004434e-01 -1.996091e+00 -1.393249e+00 1.361743e+00 -9.148459e-01 -5.956016e-01 -2.356854e-01 1.144375e+00 -6.475455e-01 -1.766686e-01 8.793005e-01 2.994108e-01 1.273147e-01 5.095450e-01
<VARIANCE> 25
 2.566368e+01 2.163258e+01 3.150422e+01 2.664163e+01 2.008428e+01 1.128384e+01 2.378204e+01 1.259158e+01 2.077693e+01 1.595772e+01 1.565161e+01 1.181919e+01 2.267682e+00 1.141573e+00 2.328677e+00 2.082147e+00 1.315976e+00 1.432624e+00 2.174185e+00 1.081570e+00 2.188163e+00 1.189890e+00 1.148870e+00 1.347243e+00 5.140404e-01
<GCONST> 8.589548e+01
<STATE> 3
<MEAN> 25
 -1.019009e+01 -6.176784e+00 8.556870e+00 -3.028764e+00 -1.273862e+00 1.033422e+00 6.964347e+00 -2.845108e+00 -8.915864e-01 3.732051e+00 8.764184e-01 4.543104e-01 -8.580673e-01 -2.141610e-01 4.519250e-01 -7.994769e-01 1.728845e-01 -3.011709e-02 2.305702e-01 -3.778776e-01 8.207384e-02 1.644282e-01 1.240097e-03 2.165418e-02 2.018080e-01
<VARIANCE> 25
 2.370861e+01 1.442133e+01 3.538484e+01 2.928461e+01 2.229358e+01 1.026453e+01 3.219855e+01 1.763563e+01 2.653138e+01 1.049062e+01 1.378631e+01 8.918141e+00 8.222684e-01 7.552972e-01 1.210905e+00 1.130998e+00 9.710779e-01 9.082332e-01 1.053421e+00 1.221697e+00 9.958576e-01 9.624012e-01 9.261141e-01 8.209022e-01 3.461599e-01
<GCONST> 7.952760e+01
<STATE> 4
<MEAN> 25
 -7.777129e+00 -3.280932e+00 3.664628e+00 -1.962202e+00 2.314733e-01 3.404762e+00 5.665982e+00 -9.341577e-01 4.877748e-01 3.422894e+00 1.313373e+00 7.987188e-02 3.673184e-01 2.577094e-01 -4.786111e-01 2.472532e-01 1.174707e-01 1.301329e-01 -3.059219e-01 2.442799e-01 1.166294e-01 -1.225311e-01 8.162556e-02 3.883861e-03 -3.051737e-01
<VARIANCE> 25
 1.912808e+01 1.784712e+01 3.665229e+01 1.760111e+01 1.659840e+01 1.084028e+01 2.390348e+01 1.985577e+01 1.802608e+01 1.143546e+01 1.084028e+01 9.189869e+00 1.092481e+00 7.806083e-01 1.022595e+00 8.480982e-01 8.559167e-01 7.165604e-01 1.413117e+00 1.104523e+00 9.990269e-01 1.221780e+00 1.052790e+00 7.929685e-01 4.388342e-01
<GCONST> 7.838425e+01
<TRANSP> 5
 0.000000e+00 1.000000e+00 0.000000e+00 0.000000e+00 0.000000e+00
 0.000000e+00 6.901952e-01 3.098049e-01 0.000000e+00 0.000000e+00
 0.000000e+00 0.000000e+00 7.406055e-01 2.593945e-01 0.000000e+00
 0.000000e+00 0.000000e+00 0.000000e+00 9.322733e-01 6.772681e-02
 0.000000e+00 0.000000e+00 0.000000e+00 0.000000e+00 0.000000e+00
<ENDHMM>
~h "t"
<BEGINHMM>
<NUMSTATES> 5
<STATE> 2
<MEAN> 25
 -3.989295e+00 5.776073e-01 1.828975e+00 -5.626293e-01 1.242213e-01 1.663913e+00 1.303665e+00 -8.953146e-01 -4.914767e-01 9.778282e-01 1.019634e+00 2.726288e-01 -7.769565e-02 -4.091882e-01 -1.795247e-01 -1.441279e-01 -1.326361e-01 -8.114159e-03 1.290318e-01 -7.915702e-02 3.913542e-02 1.017535e-01 -5.751026e-02 -6.196576e-02 2.126183e-01
<VARIANCE> 25
 1.590895e+01 1.875800e+01 1.578315e+01 1.516627e+01 1.898021e+01 1.678063e+01 1.344333e+01 1.149630e+01 1.087588e+01 1.105060e+01 1.264488e+01 1.053240e+01 1.270162e+00 1.784813e+00 9.952601e-01 1.411074e+00 1.353673e+00 1.505873e+00 8.949417e-01 1.215650e+00 1.115016e+00 1.188971e+00 1.322602e+00 9.695624e-01 2.182346e+00
<GCONST> 8.087391e+01
<STATE> 3
<MEAN> 25
 -8.582333e-01 -3.163651e+00 -3.584661e-01 -1.352780e+00 -8.696280e-01 -2.040263e-01 1.663732e+00 -1.961472e+00 -1.750946e+00 8.489653e-01 -2.555976e-01 -5.057587e-01 1.988864e+00 -5.231705e-01 -3.671793e-01 -3.986889e-01 -7.221371e-01 -1.367408e+00 -7.986849e-01 -8.692062e-01 -1.078266e+00 -1.208054e+00 -1.052368e+00 -1.252948e-01 2.106852e+00
<VARIANCE> 25
 2.269931e+01 2.885721e+01 1.512733e+01 2.353089e+01 2.156416e+01 3.058988e+01 1.583443e+01 1.687421e+01 2.138782e+01 1.950376e+01 1.204705e+01 9.769659e+00 2.534360e+00 3.605191e+00 2.249208e+00 2.710726e+00 2.386509e+00 3.165242e+00 2.692418e+00 2.607004e+00 2.883423e+00 2.438263e+00 1.660850e+00 1.422521e+00 2.990614e+00
<GCONST> 9.308395e+01
<STATE> 4
<MEAN> 25
 7.298368e+00 -8.810747e-01 -2.716511e+00 -1.872244e+00 -2.691393e+00 -5.126820e+00 -3.423600e+00 -1.422131e+00 -2.976377e+00 -4.380424e+00 -3.302854e+00 -8.227885e-02 5.260907e-01 4.189821e-01 -2.344657e-01 1.628617e-01 1.356135e-01 -3.324956e-03 -2.936603e-01 2.828209e-01 2.419226e-01 -2.946739e-01 -2.584367e-01 -4.708348e-02 -1.350954e-01
<VARIANCE> 25
 5.467411e+01 1.611911e+01 1.456630e+01 3.229502e+01 5.391320e+01 5.638597e+01 2.957680e+01 3.407891e+01 2.569719e+01 3.061300e+01 1.922840e+01 1.147998e+01 2.894414e+00 1.421947e+00 1.607318e+00 1.843429e+00 2.956899e+00 4.073874e+00 2.480170e+00 3.248202e+00 1.949377e+00 2.583313e+00 1.879914e+00 1.418832e+00 1.513045e+00
<GCONST> 9.596995e+01
<TRANSP> 5
 0.000000e+00 1.000000e+00 0.000000e+00 0.000000e+00 0.000000e+00
 0.000000e+00 8.013577e-01 1.986422e-01 0.000000e+00 0.000000e+00
 0.000000e+00 0.000000e+00 5.492527e-01 4.507473e-01 0.000000e+00
 0.000000e+00 0.000000e+00 0.000000e+00 7.384431e-01 2.615569e-01
 0.000000e+00 0.000000e+00 0.000000e+00 0.000000e+00 0.000000e+00
<ENDHMM>
~h "v"
<BEGINHMM>
<NUMSTATES> 5
<STATE> 2
<MEAN> 25
 7.339189e+00 2.663379e+00 -2.246644e+00 1.065843e+00 5.563705e+00 2.968959e+00 -2.361650e+00 -5.368221e+00 -6.341702e+00 -5.701567e+00 -2.467113e+00 -1.497414e+00 -7.083356e-01 5.804526e-01 3.882383e-01 -9.502877e-01 -1.317249e+00 5.055560e-01 1.709455e+00 1.034190e+00 3.580638e-01 -7.350767e-02 -2.359531e-01 -4.089065e-01 -6.953143e-01
<VARIANCE> 25
 2.428020e+01 1.245105e+01 1.005228e+01 3.283250e+01 4.908641e+01 3.348719e+01 2.014715e+01 2.524259e+01 1.303209e+01 1.363110e+01 4.180423e+00 1.005064e+01 5.635870e-01 2.095020e+00 1.700853e+00 2.017132e+00 3.836669e+00 1.495303e+00 2.109268e+00 3.476822e+00 2.082263e+00 1.898489e+00 1.125444e+00 1.470390e+00 8.918821e-01
<GCONST> 8.691388e+01
<STATE> 3
<MEAN> 25
 5.962282e+00 3.275107e+00 -9.995690e-01 2.951356e-01 3.144259e+00 2.587698e+00 -5.728544e-01 -2.960782e+00 -4.562151e+00 -4.781575e+00 -2.678241e+00 -1.758189e+00 -1.150427e+00 3.121569e-01 8.470796e-01 -2.216801e-02 -5.776472e-01 -2.055135e-02 7.305477e-01 5.676184e-01 6.829485e-01 9.391626e-01 2.000287e-01 -3.609127e-02 -8.041563e-01
<VARIANCE> 25
 2.658143e+01 1.650337e+01 1.201208e+01 2.007210e+01 3.423113e+01 2.997462e+01 2.111172e+01 1.862820e+01 1.143190e+01 7.548483e+00 1.149726e+01 1.190404e+01 7.525237e-01 1.386873e+00 1.276047e+00 8.904004e-01 2.085417e+00 1.071858e+00 9.493949e-01 1.852931e+00 1.501464e+00 1.192636e+00 1.165325e+00 1.355000e+00 9.364965e-01
<GCONST> 8.231408e+01
<STATE> 4
<MEAN> 25
 1.382917e+00 3.118762e+00 1.050774e+00 1.182211e+00 2.893044e+00 2.281075e+00 7.313060e-01 -1.798995e+00 -2.986734e+00 -2.391493e+00 -1.815327e+00 -1.610584e+00 -9.082816e-01 -2.096245e-01 2.433239e-01 -1.165911e-01 -3.369847e-01 -1.843262e-01 1.456954e-01 3.674909e-01 4.808025e-01 7.683111e-01 4.264576e-01 3.291062e-01 -5.339425e-01
<VARIANCE> 25
 1.826097e+01 2.072264e+01 1.917876e+01 1.775251e+01 2.539322e+01 1.497595e+01 1.084930e+01 1.356698e+01 1.197810e+01 1.031766e+01 1.156055e+01 1.295665e+01 7.419205e-01 6.437481e-01 1.165838e+00 8.142177e-01 1.349940e+00 7.573382e-01 7.535572e-01 9.475175e-01 1.443828e+00 1.033849e+00 5.726240e-01 6.623045e-01 4.289102e-01
<GCONST> 7.595078e+01
<TRANSP> 5
 0.000000e+00 1.000000e+00 0.000000e+00 0.000000e+00 0.000000e+00
 0.000000e+00 3.360938e-01 6.639062e-01 0.000000e+00 0.000000e+00
 0.000000e+00 0.000000e+00 2.244120e-01 7.755880e-01 0.000000e+00
 0.000000e+00 0.000000e+00 0.000000e+00 6.934160e-01 3.065840e-01
 0.000000e+00 0.000000e+00 0.000000e+00 0.000000e+00 0.000000e+00
<ENDHMM>
~h "w"
<BEGINHMM>
<NUMSTATES> 5
<STATE> 2
<MEAN> 25
 3.693707e+00 3.339821e+00 1.096359e+00 1.816784e+00 8.430049e-01 -1.389532e+00 -2.841812e+00 -1.366508e-01 7.478690e-02 -2.565408e+00 -2.599860e+00 -1.287769e+00 6.806951e-01 9.820871e-01 1.060916e+00 1.108303e+00 7.276158e-01 -6.898528e-01 -1.950552e+00 -2.153708e+00 -1.043738e+00 -2.217413e-01 -3.375280e-02 9.846433e-02 2.646704e-01
<VARIANCE> 25
 4.811993e+01 2.394934e+01 2.125815e+01 9.841603e+00 4.407795e+01 7.215111e+01 5.873041e+01 2.149505e+01 2.584986e+01 3.210665e+01 1.780441e+01 1.071951e+01 2.341629e+00 3.050910e+00 2.098259e+00 1.691170e+00 3.872624e+00 2.772510e+00 3.532757e+00 3.431923e+00 2.834863e+00 1.536585e+00 1.223769e+00 4.911973e-01 6.944140e-01
<GCONST> 9.421792e+01
<STATE> 3
<MEAN> 25
 4.313412e+00 4.328306e+00 2.148237e+00 3.032018e+00 2.593757e+00 -1.174528e+00 -5.108328e+00 -4.006740e+00 -1.710770e+00 -2.401265e+00 -1.838276e+00 -9.793267e-01 3.930209e-01 6.055637e-01 4.664493e-01 5.035667e-01 1.189178e-01 -5.120248e-01 -1.107028e+00 -1.081528e+00 -2.745053e-01 1.687860e-01 1.072248e-01 4.532580e-02 1.574009e-01
<VARIANCE> 25
 4.181757e+01 3.832153e+01 3.415308e+01 1.097233e+01 3.747707e+01 5.120792e+01 6.204915e+01 2.611750e+01 2.808869e+01 2.705294e+01 1.257584e+01 8.837471e+00 1.405438e+00 1.456593e+00 9.056879e-01 3.541758e+00 4.056253e+00 2.246973e+00 3.990008e+00 2.216294e+00 2.269855e+00 1.021164e+00 7.548419e-01 7.716721e-01 4.082021e-01
<GCONST> 9.122230e+01
<STATE> 4
<MEAN> 25
 6.024099e+00 9.103750e+00 4.831873e+00 1.808085e+00 -1.322500e+00 -4.953199e+00 -7.180743e+00 -4.632280e+00 -1.543554e+00 -9.127797e-01 -1.786369e+00 -2.809664e+00 6.988636e-01 1.579348e-01 -2.924255e-01 -3.972933e-01 -5.972970e-01 -1.081306e+00 -5.564852e-01 3.219535e-01 4.640355e-01 4.038524e-01 -2.161533e-02 -4.629338e-01 4.555588e-01
<VARIANCE> 25
 1.896780e+01 3.181868e+01 2.253689e+01 1.434059e+01 2.519695e+01 3.425090e+01 3.072355e+01 1.514633e+01 1.589789e+01 1.232363e+01 8.182940e+00 7.828816e+00 8.014585e-01 7.761341e-01 1.025368e+00 2.004519e+00 1.787139e+00 1.845865e+00 1.902127e+00 1.542646e+00 1.656857e+00 1.098530e+00 7.875876e-01 8.604252e-01 4.243856e-01
<GCONST> 8.233717e+01
<TRANSP> 5
 0.000000e+00 1.000000e+00 0.000000e+00 0.000000e+00 0.000000e+00
 0.000000e+00 2.913789e-01 7.086211e-01 0.000000e+00 0.000000e+00
 0.000000e+00 0.000000e+00 1.355860e-01 8.644140e-01 0.000000e+00
 0.000000e+00 0.000000e+00 0.000000e+00 6.380593e-01 3.619407e-01
 0.000000e+00 0.000000e+00 0.000000e+00 0.000000e+00 0.000000e+00
<ENDHMM>
~h "y"
<BEGINHMM>
<NUMSTATES> 5
<STATE> 2
<MEAN> 25
 -3.580394e+00 4.132702e-01 7.156168e-01 6.527896e-01 7.105452e-01 2.106075e+00 2.354794e+00 1.614810e+00 8.544002e-01 1.579163e+00 2.327716e+00 1.710229e+00 -6.646960e-02 1.681536e-02 7.201087e-02 7.534784e-02 1.013167e-01 -2.070814e-04 -5.537333e-02 -1.911599e-02 2.333844e-02 5.004632e-02 9.263704e-02 1.328486e-01 -4.511157e-02
<VARIANCE> 25
 5.462515e+00 3.556338e+00 1.894412e+00 3.703064e+00 5.826491e+00 5.684935e+00 5.275417e+00 5.574493e+00 6.299891e+00 6.008667e+00 6.340357e+00 6.838072e+00 6.064192e-02 9.199953e-02 1.460873e-01 2.875828e-01 3.223322e-01 4.617368e-01 3.460727e-01 4.844208e-01 7.469098e-01 6.316956e-01 5.428646e-01 4.707626e-01 3.413827e-02
<GCONST> 4.760415e+01
<STATE> 3
<MEAN> 25
 5.009134e+00 4.949332e+00 2.033309e+00 1.476137e+00 1.855315e+00 -3.763540e-01 -3.568226e+00 -1.884270e+00 6.737828e-01 -1.100951e-01 -2.311137e+00 -1.892795e+00 3.792570e-01 -8.517625e-02 -1.922012e-01 -3.212909e-01 -1.116367e+00 -9.720937e-01 -3.963214e-01 3.088520e-01 4.474490e-01 -6.809548e-03 2.711697e-02 2.986678e-01 2.381981e-01
<VARIANCE> 25
 5.451432e+01 1.304611e+01 3.254715e+00 3.646587e+00 1.691994e+01 1.497554e+01 2.387456e+01 1.034613e+01 3.539748e+00 4.471378e+00 1.923757e+01 1.284462e+01 1.770526e-01 3.048384e-01 1.503444e-01 2.599730e-01 5.047163e-01 1.171046e+00 6.855712e-01 2.529401e-01 1.002342e+00 4.645618e-01 5.545802e-01 5.055215e-01 1.311180e-01
<GCONST> 6.179670e+01
<STATE> 4
<MEAN> 25
 9.914621e+00 1.754656e+00 -2.424761e+00 -2.270601e+00 -3.520790e+00 -5.544640e+00 -6.525510e+00 -2.351098e+00 1.514219e+00 1.094113e-01 -1.582947e+00 -1.803246e+00 2.410440e-01 -6.640961e-01 -3.953447e-01 -5.469464e-01 -8.342010e-01 -6.495149e-01 -1.149403e-01 1.915275e-01 2.061833e-01 2.041544e-01 1.761984e-01 -1.465483e-01 5.934066e-01
<VARIANCE> 25
 5.339036e+01 2.034276e+01 1.420804e+01 1.464941e+01 2.303425e+01 2.379623e+01 2.076304e+01 9.234463e+00 5.337233e+00 1.064499e+01 8.753977e+00 1.171681e+01 3.554207e-01 8.992680e-01 2.532448e-01 7.086880e-01 1.406410e+00 1.844194e+00 6.684850e-01 8.637086e-01 6.417088e-01 1.527697e+00 9.592270e-01 5.634103e-01 3.392231e-01
<GCONST> 7.433758e+01
<TRANSP> 5
 0.000000e+00 1.000000e+00 0.000000e+00 0.000000e+00 0.000000e+00
 0.000000e+00 9.336344e-01 6.636558e-02 0.000000e+00 0.000000e+00
 0.000000e+00 0.000000e+00 4.059048e-01 5.940952e-01 0.000000e+00
 0.000000e+00 0.000000e+00 0.000000e+00 6.705353e-01 3.294647e-01
 0.000000e+00 0.000000e+00 0.000000e+00 0.000000e+00 0.000000e+00
<ENDHMM>
~h "z"
<BEGINHMM>
<NUMSTATES> 5
<STATE> 2
<MEAN> 25
 -9.301914e+00 -4.441402e+00 1.123825e+01 -6.531615e+00 2.088663e+00 1.525590e+00 5.730535e+00 -6.239691e+00 -6.144814e+00 1.889408e+00 1.048521e+00 -2.078294e+00 -1.159025e+00 -2.009349e-01 6.627111e-01 -1.099547e+00 -1.289038e-01 4.074444e-01 6.608446e-01 -5.912871e-02 2.876782e-01 6.985676e-01 2.419416e-01 -6.105068e-02 -6.280680e-02
<VARIANCE> 25
 4.668393e+01 1.648137e+01 2.523812e+01 3.763590e+01 4.246781e+01 1.225003e+01 4.770082e+01 1.563662e+01 2.025420e+01 3.384114e+01 1.803021e+01 1.115272e+01 2.738258e+00 9.175751e-01 3.134206e+00 3.818776e+00 9.101528e-01 1.177674e+00 1.574248e+00 1.236260e+00 2.122791e+00 1.360792e+00 1.205543e+00 1.201709e+00 4.449130e-01
<GCONST> 8.891196e+01
<STATE> 3
<MEAN> 25
 -6.966430e+00 -1.001284e+00 2.028216e+00 -2.509684e+00 1.660889e+00 4.667199e+00 4.761750e+00 3.518980e-01 1.344792e+00 3.776232e+00 3.014452e+00 1.663836e+00 1.406644e-02 1.173119e-03 -1.191553e-01 2.029190e-01 9.720773e-04 1.030871e-01 -2.309266e-03 9.137125e-02 1.733546e-01 1.686069e-01 5.147009e-02 3.611697e-02 -1.772063e-01
<VARIANCE> 25
 1.595214e+01 1.507934e+01 3.132967e+01 1.419733e+01 1.458716e+01 7.712248e+00 5.231589e+00 1.703913e+01 8.054685e+00 6.108261e+00 6.860480e+00 5.488327e+00 2.440595e-01 3.515357e-01 4.479353e-01 3.260524e-01 4.317328e-01 4.417483e-01 5.589244e-01 4.875950e-01 7.645323e-01 7.146242e-01 3.929830e-01 7.691942e-01 1.231917e-01
<GCONST> 6.303345e+01
<STATE> 4
<MEAN> 25
 -8.025934e+00 -4.792232e+00 5.498827e+00 -1.170328e+00 1.880315e+00 5.541533e+00 4.668621e+00 -2.391497e+00 -3.976800e-01 3.895267e+00 -1.494896e-01 -7.885570e-01 1.185566e+00 7.456793e-01 -1.469609e+00 1.430625e+00 -9.529409e-02 -2.073767e-01 -8.447257e-01 8.906354e-01 5.542867e-02 -1.034995e+00 -2.561320e-02 3.222290e-01 -8.782117e-01
<VARIANCE> 25
 9.864532e+00 2.287603e+01 3.159733e+01 2.087965e+01 3.715266e+01 3.821589e+00 1.451302e+01 1.006568e+01 7.266272e+00 1.569983e+01 1.156349e+01 9.674237e+00 7.578241e-01 2.107063e+00 1.073440e+00 1.906968e+00 1.030267e+00 1.327346e+00 1.007605e+00 5.219151e-01 6.635749e-01 1.349532e+00 1.021511e+00 2.008911e+00 6.057624e-01
<GCONST> 7.821384e+01
<TRANSP> 5
 0.000000e+00 1.000000e+00 0.000000e+00 0.000000e+00 0.000000e+00
 0.000000e+00 8.997364e-01 1.002636e-01 0.000000e+00 0.000000e+00
 0.000000e+00 0.000000e+00 9.289690e-01 7.103106e-02 0.000000e+00
 0.000000e+00 0.000000e+00 0.000000e+00 7.504890e-01 2.495111e-01
 0.000000e+00 0.000000e+00 0.000000e+00 0.000000e+00 0.000000e+00
<ENDHMM>
~h "aa"
<BEGINHMM>
<NUMSTATES> 5
<STATE> 2
<MEAN> 25
 4.854805e+00 3.304430e+00 1.026140e+00 -1.684228e+00 -6.370387e+00 -5.782792e+00 -2.382488e+00 1.366079e+00 4.006736e+00 3.712534e+00 5.699836e-01 -1.912804e+00 1.739559e+00 4.286551e-01 1.309661e-01 -6.443650e-03 -7.723254e-01 -1.802388e+00 -1.667091e+00 -3.102470e-01 6.027343e-01 -1.106772e-01 -5.152912e-01 -1.193141e-01 1.275043e+00
<VARIANCE> 25
 3.750286e+01 2.534123e+01 3.848186e+01 3.225634e+01 5.031219e+01 5.538031e+01 4.955524e+01 1.198903e+01 2.558278e+01 2.425621e+01 3.551525e+01 1.586611e+01 4.145486e+00 2.188457e+00 1.421067e+00 2.166271e+00 4.762285e+00 7.095940e+00 5.976773e+00 1.167019e+00 2.082141e+00 2.097639e+00 2.814959e+00 1.181690e+00 2.186542e+00
<GCONST> 9.926263e+01
<STATE> 3
<MEAN> 25
 1.078658e+01 -1.267660e+00 -2.680715e+00 -5.368315e+00 -1.007877e+01 -1.185781e+01 -8.716224e+00 -1.315868e+00 6.449126e+00 5.252587e+00 3.527717e-01 -2.377623e+00 1.598189e-01 -1.442557e-01 -2.338356e-01 -1.751808e-01 -1.269913e-02 2.377719e-01 2.884861e-01 1.657572e-02 -2.467244e-01 -3.539081e-01 -1.937553e-01 -5.202173e-02 1.579082e-01
<VARIANCE> 25
 4.067152e+00 2.502091e+01 1.575450e+01 2.921453e+01 6.443825e+00 3.087191e+01 2.743984e+01 1.192201e+01 1.577269e+01 3.496016e+01 2.048325e+01 1.966404e+01 2.985975e-01 1.021157e+00 3.172725e-01 3.709505e-01 4.994702e-01 1.176240e+00 1.305928e+00 1.444094e+00 9.108722e-01 1.494803e+00 1.274412e+00 6.116305e-01 7.405925e-01
<GCONST> 7.662991e+01
<STATE> 4
<MEAN> 25
 1.056753e+01 3.254350e+00 -2.268355e+00 -2.959985e+00 -6.641154e+00 -7.970623e+00 -4.349964e+00 2.170734e+00 4.321533e+00 -5.759069e-01 -3.424602e+00 -2.071327e+00 -9.405967e-01 4.996104e-01 -9.652590e-03 3.803645e-01 1.864403e+00 2.424467e+00 1.470931e+00 5.585507e-02 -6.833211e-01 -2.078443e-01 1.246335e-02 -3.798948e-02 -1.127123e+00
<VARIANCE> 25
 1.790829e+01 1.548843e+01 1.570538e+01 1.655757e+01 1.997377e+01 5.011346e+01 4.370810e+01 2.676204e+01 2.652056e+01 4.496574e+01 2.099023e+01 1.538114e+01 1.547608e+00 1.877233e+00 2.147176e+00 8.217273e-01 2.214665e+00 3.611494e+00 1.398899e+00 2.121409e+00 2.368260e+00 2.269182e+00 2.660209e+00 3.493809e+00 9.302578e-01
<GCONST> 9.260736e+01
<TRANSP> 5
 0.000000e+00 1.000000e+00 0.000000e+00 0.000000e+00 0.000000e+00
 0.000000e+00 8.717225e-01 1.282775e-01 0.000000e+00 0.000000e+00
 0.000000e+00 0.000000e+00 8.597885e-01 1.402116e-01 0.000000e+00
 0.000000e+00 0.000000e+00 0.000000e+00 7.756995e-01 2.243005e-01
 0.000000e+00 0.000000e+00 0.000000e+00 0.000000e+00 0.000000e+00
<ENDHMM>
~h "ae"
<BEGINHMM>
<NUMSTATES> 5
<STATE> 2
<MEAN> 25
 -1.732906e+00 2.988473e+00 1.244477e+00 -1.241243e+00 -9.876776e-02 2.775430e+00 2.476934e+00 8.195562e-01 4.499618e-01 1.229273e+00 1.267368e+00 3.333400e-01 -3.317221e-01 -1.075837e-01 6.874267e-02 1.159365e-01 8.463927e-02 1.355635e-01 1.502908e-01 1.366495e-01 9.205379e-02 1.373087e-01 8.628765e-02 1.961288e-01 -2.411166e-01
<VARIANCE> 25
 3.517384e+01 2.925290e+01 1.345943e+01 1.439793e+01 1.289556e+01 1.579002e+01 1.237914e+01 1.018861e+01 9.197818e+00 1.140528e+01 1.046086e+01 7.673208e+00 8.361110e-01 4.501783e-01 1.040573e+00 1.048798e+00 1.061699e+00 9.056420e-01 6.558000e-01 5.974278e-01 4.739055e-01 7.575563e-01 6.305054e-01 4.956800e-01 2.800395e-01
<GCONST> 7.201569e+01
<STATE> 3
<MEAN> 25
 7.852998e-01 2.410308e+00 -5.215226e-01 -2.987746e+00 -2.773061e+00 -1.638773e-01 1.272504e+00 1.091304e+00 7.822266e-01 8.840486e-01 7.278699e-02 4.213968e-01 6.469715e-01 -2.389868e-02 -4.497847e-01 -8.618715e-01 -1.214085e+00 -8.225067e-01 -2.055915e-01 1.000162e-01 4.882513e-01 1.505751e-01 -4.418059e-01 -2.994594e-01 4.951660e-01
<VARIANCE> 25
 4.247335e+01 2.661675e+01 3.026201e+01 2.984074e+01 3.495642e+01 3.477151e+01 1.411949e+01 9.308390e+00 1.302182e+01 1.321300e+01 1.152622e+01 1.455095e+01 3.809010e+00 1.833603e+00 1.498238e+00 2.012549e+00 4.574013e+00 3.552344e+00 2.182975e+00 1.245518e+00 1.276074e+00 1.094423e+00 1.297424e+00 1.129890e+00 1.427865e+00
<GCONST> 8.994289e+01
<STATE> 4
<MEAN> 25
 5.191939e+00 2.172220e+00 -1.335124e+00 -5.642531e+00 -7.572359e+00 -4.447810e+00 -8.510389e-01 9.267369e-01 3.364960e+00 2.985049e+00 -4.391977e-01 -1.514030e+00 5.746797e-02 -1.315887e-01 1.821316e-02 2.935248e-01 2.833643e-01 6.831370e-02 -1.085752e-01 -1.864847e-01 -2.520389e-01 -2.105618e-01 8.550040e-03 -1.611830e-01 1.276906e-01
<VARIANCE> 25
 3.415195e+01 3.049818e+01 2.322736e+01 3.267305e+01 4.671004e+01 3.528939e+01 1.564781e+01 1.378442e+01 2.541809e+01 3.179559e+01 1.637218e+01 1.430207e+01 1.417988e+00 1.802550e+00 1.236314e+00 1.192585e+00 2.027527e+00 1.296386e+00 1.565209e+00 1.616366e+00 9.220704e-01 1.456209e+00 1.722126e+00 1.332049e+00 1.445619e+00
<GCONST> 8.917431e+01
<TRANSP> 5
 0.000000e+00 1.000000e+00 0.000000e+00 0.000000e+00 0.000000e+00
 0.000000e+00 7.767608e-01 2.232392e-01 0.000000e+00 0.000000e+00
 0.000000e+00 0.000000e+00 4.365803e-01 5.634197e-01 0.000000e+00
 0.000000e+00 0.000000e+00 0.000000e+00 6.141599e-01 3.858401e-01
 0.000000e+00 0.000000e+00 0.000000e+00 0.000000e+00 0.000000e+00
<ENDHMM>
~h "ah"
<BEGINHMM>
<NUMSTATES> 5
<STATE> 2
<MEAN> 25
 -7.169752e+00 2.468672e-01 1.142811e+00 -1.878655e-01 1.311172e+00 4.833593e+00 4.370559e+00 1.908733e+00 7.206179e-01 2.269767e+00 2.790877e+00 1.370008e+00 -9.811689e-02 -1.175948e-01 -1.151680e-01 -1.201483e-01 -1.191738e-01 -4.763856e-02 3.615166e-02 6.042799e-02 2.121907e-02 -5.348627e-03 3.007747e-02 1.302505e-02 -3.513496e-02
<VARIANCE> 25
 7.315628e+00 6.444553e+00 3.081138e+00 6.069101e+00 4.333210e+00 9.461482e+00 1.018976e+01 7.581651e+00 5.882589e+00 6.005386e+00 5.880700e+00 5.439876e+00 7.268307e-02 1.302273e-01 1.720075e-01 1.679926e-01 3.256261e-01 4.079019e-01 6.050827e-01 6.196367e-01 5.315374e-01 5.373167e-01 5.315120e-01 6.080178e-01 2.531451e-02
<GCONST> 5.055640e+01
<STATE> 3
<MEAN> 25
 -2.831341e+00 1.532646e+00 1.240684e+00 -8.417598e-01 -9.549237e-01 2.028870e+00 4.298605e+00 2.797611e+00 9.667021e-01 1.344084e+00 1.442358e-01 -2.420954e+00 9.595340e-01 6.200245e-02 -1.335389e-01 -9.668720e-01 -1.359375e+00 -7.751889e-01 3.111967e-02 -5.637038e-02 3.800809e-01 1.017260e-01 -9.929123e-02 -5.194287e-01 7.231716e-01
<VARIANCE> 25
 3.566330e+01 2.788210e+01 1.420195e+01 1.493319e+01 1.644692e+01 2.598675e+01 7.325704e+00 6.459571e+00 1.529425e+00 7.891179e+00 6.209029e+00 7.934649e+00 6.141416e-01 1.599084e+00 3.003517e-01 7.088964e-01 1.978037e+00 1.335937e+00 2.013189e+00 2.115636e+00 3.127666e+00 1.317888e+00 1.195727e+00 8.055590e-01 3.848972e-01
<GCONST> 7.578849e+01
<STATE> 4
<MEAN> 25
 6.960165e+00 1.889142e+00 -1.833848e+00 -6.205023e+00 -7.296597e+00 -3.764528e+00 -7.418606e-01 -7.114685e-01 6.156569e-01 2.608449e+00 1.710916e+00 -8.129715e-01 3.223136e-01 2.952860e-02 -3.754454e-02 -1.673073e-01 -2.470880e-01 -2.194902e-01 -1.901753e-01 -2.139297e-01 -1.396191e-02 2.045248e-02 -3.163227e-02 6.528500e-02 2.351174e-01
<VARIANCE> 25
 4.424045e+01 3.512606e+01 1.418349e+01 2.604533e+01 4.627966e+01 4.009451e+01 3.136347e+01 2.263939e+01 3.879469e+01 4.348550e+01 2.402161e+01 1.630394e+01 3.861416e+00 2.798877e+00 1.304643e+00 2.673374e+00 3.712101e+00 3.419242e+00 2.481333e+00 2.262632e+00 2.792511e+00 2.833489e+00 2.103142e+00 1.955832e+00 3.019389e+00
<GCONST> 9.918340e+01
<TRANSP> 5
 0.000000e+00 1.000000e+00 0.000000e+00 0.000000e+00 0.000000e+00
 0.000000e+00 9.213730e-01 7.862706e-02 0.000000e+00 0.000000e+00
 0.000000e+00 0.000000e+00 2.524337e-01 7.475663e-01 0.000000e+00
 0.000000e+00 0.000000e+00 0.000000e+00 9.524136e-01 4.758643e-02
 0.000000e+00 0.000000e+00 0.000000e+00 0.000000e+00 0.000000e+00
<ENDHMM>
~h "ao"
<BEGINHMM>
<NUMSTATES> 5
<STATE> 2
<MEAN> 25
 -2.521955e+00 -1.809988e+00 -8.576899e-01 -9.632304e-01 -3.370378e-01 -3.004071e-01 -8.003366e-01 -4.652025e-01 3.914717e-01 1.286331e+00 2.438502e+00 1.929966e+00 -1.148088e-01 -1.016483e-01 -1.548437e-01 2.664315e-02 3.858787e-02 -9.648451e-02 1.737299e-01 2.722345e-01 7.788616e-02 -1.615466e-01 -7.083666e-02 9.581698e-02 -7.795341e-02
<VARIANCE> 25
 6.022396e+01 1.394442e+01 2.440657e+01 7.629428e+00 2.289367e+01 3.152361e+01 3.147927e+01 1.340051e+01 1.028130e+01 8.216512e+00 7.059737e+00 8.768355e+00 2.034213e-01 2.705578e-01 3.543266e-01 7.605879e-01 1.077102e+00 6.601173e-01 7.696620e-01 9.808789e-01 9.223454e-01 4.857838e-01 7.392561e-01 8.942720e-01 8.911563e-02
<GCONST> 7.062756e+01
<STATE> 3
<MEAN> 25
 -9.380695e-01 -2.379915e+00 -1.765256e+00 -8.726503e-01 -8.145471e-01 -1.046402e+00 -5.976245e-01 3.964996e-01 9.517768e-02 3.443721e-02 1.654951e+00 3.000310e+00 8.648157e-03 -5.381313e-02 -2.100582e-02 3.388447e-01 8.606304e-02 1.254655e-01 2.230999e-01 -3.524125e-02 -9.201622e-02 6.388500e-02 -2.563723e-02 -4.545458e-02 -9.731552e-02
<VARIANCE> 25
 8.852564e+01 1.217311e+01 2.449660e+01 6.925344e+00 2.195115e+01 4.527007e+01 2.946249e+01 1.011299e+01 9.810248e+00 8.288401e+00 6.558968e+00 6.938484e+00 2.294222e-01 4.115597e-01 3.107642e-01 5.427201e-01 1.100174e+00 1.050302e+00 8.741391e-01 1.010083e+00 1.073297e+00 5.272050e-01 5.729309e-01 7.208949e-01 1.837046e-01
<GCONST> 7.160985e+01
<STATE> 4
<MEAN> 25
 4.265766e+00 7.510353e-01 8.839768e-01 5.623394e-01 -3.377328e+00 -6.371758e+00 -3.335918e+00 -6.657189e-01 -4.570675e-02 -7.072133e-01 4.022121e-01 2.263893e+00 5.910675e-01 9.136734e-01 6.376467e-01 3.458899e-01 7.423201e-02 -1.156108e-01 -7.295494e-01 -9.503907e-01 -3.291808e-01 3.246700e-02 -1.866866e-01 -7.977984e-01 9.247430e-02
<VARIANCE> 25
 1.364194e+02 3.814503e+01 5.648974e+01 8.605893e+00 1.385241e+01 4.715376e+01 6.959785e+01 1.366634e+01 6.331635e+00 6.211884e+00 6.326380e+00 9.578388e+00 2.453560e+00 2.916928e+00 1.684410e+00 8.735616e-01 4.352207e+00 7.340851e+00 3.080029e+00 1.444668e+00 1.394184e+00 8.323873e-01 5.405980e-01 2.620953e+00 2.056331e+00
<GCONST> 9.033585e+01
<TRANSP> 5
 0.000000e+00 1.000000e+00 0.000000e+00 0.000000e+00 0.000000e+00
 0.000000e+00 7.125675e-01 2.874325e-01 0.000000e+00 0.000000e+00
 0.000000e+00 0.000000e+00 7.302417e-01 2.697583e-01 0.000000e+00
 0.000000e+00 0.000000e+00 0.000000e+00 4.367755e-01 5.632245e-01
 0.000000e+00 0.000000e+00 0.000000e+00 0.000000e+00 0.000000e+00
<ENDHMM>
~h "aw"
<BEGINHMM>
<NUMSTATES> 5
<STATE> 2
<MEAN> 25
 -5.430266e+00 -9.643660e-01 -3.444608e-01 -1.060162e-01 2.751474e+00 5.055009e+00 3.072789e+00 1.794623e+00 1.518843e+00 7.751460e-01 1.652260e-01 8.373981e-01 8.834499e-01 1.742012e-01 -2.027819e-01 -1.862095e-01 -8.032777e-01 -1.188594e+00 -5.991789e-01 5.680657e-02 5.913837e-02 -3.116283e-01 -3.943666e-01 -2.136467e-01 5.329633e-01
<VARIANCE> 25
 1.459471e+01 8.326113e-01 1.515543e+00 2.741786e+00 1.579913e+01 2.964104e+01 1.039172e+01 3.959313e+00 4.792247e+00 8.478505e+00 7.030284e+00 1.768986e+00 2.310641e+00 2.367779e-01 2.114842e-01 4.980305e-01 2.496978e+00 4.226719e+00 1.387172e+00 4.677695e-01 3.451333e-01 4.238703e-01 8.182048e-01 4.560075e-01 9.974049e-01
<GCONST> 6.211970e+01
<STATE> 3
<MEAN> 25
 1.067796e+01 1.641959e-02 -2.743084e+00 -2.240746e+00 -8.198231e+00 -1.106258e+01 -6.128549e+00 8.855888e-01 2.815526e+00 -2.107130e+00 -4.418021e+00 -2.369520e+00 5.385354e-01 4.405536e-01 1.920995e-01 3.752154e-02 1.641675e-01 2.258364e-01 3.639868e-02 -2.344434e-01 -4.589736e-02 1.400719e-01 6.874417e-02 -2.487260e-01 2.783508e-01
<VARIANCE> 25
 8.578825e+00 1.447194e+01 9.818279e+00 5.229892e+00 1.468010e+01 2.272743e+01 1.946856e+01 6.971600e+00 2.025086e+01 6.353299e+00 1.025908e+01 7.930811e+00 4.172134e+00 2.007107e+00 1.573623e+00 7.770253e-01 3.876960e+00 7.107804e+00 3.892834e+00 6.203227e-01 8.854324e-01 5.226347e-01 1.157299e+00 6.140718e-01 3.213003e+00
<GCONST> 8.126306e+01
<STATE> 4
<MEAN> 25
 5.949675e+00 2.619556e+00 2.131678e-01 -2.123435e+00 -5.944931e+00 -7.105038e+00 -3.154219e+00 5.344287e-01 1.268621e+00 1.135727e+00 1.922689e+00 1.214414e+00 -6.588952e-02 -6.023914e-02 -2.031169e-02 3.341387e-02 3.975725e-02 1.421402e-02 -2.395484e-02 -5.340269e-02 -1.154091e-01 -5.732051e-02 1.177148e-01 1.310983e-01 -4.049416e-02
<VARIANCE> 25
 3.239045e+01 1.351794e+01 2.309370e+01 2.305376e+01 4.382752e+01 8.195575e+01 5.115051e+01 1.276472e+01 2.054255e+01 1.337430e+01 1.428083e+01 1.343687e+01 1.483050e+00 9.274217e-01 9.642428e-01 1.421387e+00 2.950683e+00 4.747307e+00 3.389782e+00 1.534230e+00 1.652539e+00 1.171242e+00 1.976640e+00 1.414349e+00 1.408100e+00
<GCONST> 9.079993e+01
<TRANSP> 5
 0.000000e+00 1.000000e+00 0.000000e+00 0.000000e+00 0.000000e+00
 0.000000e+00 8.320620e-01 1.679380e-01 0.000000e+00 0.000000e+00
 0.000000e+00 0.000000e+00 8.976533e-01 1.023467e-01 0.000000e+00
 0.000000e+00 0.000000e+00 0.000000e+00 9.655974e-01 3.440265e-02
 0.000000e+00 0.000000e+00 0.000000e+00 0.000000e+00 0.000000e+00
<ENDHMM>
~h "ax"
<BEGINHMM>
<NUMSTATES> 5
<STATE> 2
<MEAN> 25
 -4.009628e-02 1.030294e+00 9.105027e-02 -1.027115e+00 -1.931165e+00 -8.188660e-01 2.964181e-01 -2.988157e-01 -4.167229e-01 -1.311555e-01 -5.911279e-02 -6.395340e-03 1.786770e+00 4.403164e-01 -3.325419e-01 -6.188030e-01 -1.460489e+00 -2.155704e+00 -1.294899e+00 -8.548743e-02 -1.683022e-01 -6.750991e-01 -5.030422e-01 8.007209e-02 1.178702e+00
<VARIANCE> 25
 5.352818e+01 2.123600e+01 1.642362e+01 1.594986e+01 3.219541e+01 5.543388e+01 4.700854e+01 1.888428e+01 1.890424e+01 2.100564e+01 1.835052e+01 1.352238e+01 3.005267e+00 3.357483e+00 1.930583e+00 2.348363e+00 2.840121e+00 4.084736e+00 4.533995e+00 2.657950e+00 2.355962e+00 2.378106e+00 2.020536e+00 1.723461e+00 1.571179e+00
<GCONST> 9.651100e+01
<STATE> 3
<MEAN> 25
 6.643678e+00 1.877733e+00 -1.895063e+00 -3.282255e+00 -6.157900e+00 -7.312187e+00 -3.941289e+00 -6.923231e-01 1.808345e-02 -1.300511e+00 -2.296613e+00 -5.863925e-01 2.319839e+00 -5.867900e-02 -7.124391e-01 -5.497818e-01 -1.136507e+00 -2.242618e+00 -1.855099e+00 -4.056104e-01 -5.689783e-02 -6.091450e-01 -6.259841e-01 4.981759e-02 1.758728e+00
<VARIANCE> 25
 3.594014e+01 2.157421e+01 2.450933e+01 2.374750e+01 3.222935e+01 5.898387e+01 5.358924e+01 1.834517e+01 3.294284e+01 3.136877e+01 1.985167e+01 1.792796e+01 3.410439e+00 2.536425e+00 1.820696e+00 2.652923e+00 3.665765e+00 4.339484e+00 3.738957e+00 3.295084e+00 2.922881e+00 2.553004e+00 2.106207e+00 1.991261e+00 2.468184e+00
<GCONST> 9.958038e+01
<STATE> 4
<MEAN> 25
 9.888611e+00 2.066643e+00 -2.493123e+00 -4.060559e+00 -7.083219e+00 -9.569392e+00 -7.023904e+00 -2.016958e+00 -8.004934e-01 -2.178025e+00 -1.321657e+00 7.964016e-01 3.948271e-03 6.706556e-02 -8.350056e-03 6.476797e-02 2.207123e-01 2.952445e-01 1.881973e-01 5.771218e-02 -7.897751e-02 -9.831726e-02 -1.115915e-01 -1.126591e-01 -6.212698e-02
<VARIANCE> 25
 2.441241e+01 2.362296e+01 2.170420e+01 2.102357e+01 2.613803e+01 4.109373e+01 3.171474e+01 3.478815e+01 3.473176e+01 2.936385e+01 3.063585e+01 1.988358e+01 1.451156e+00 1.903842e+00 1.199715e+00 1.479545e+00 2.208391e+00 3.453466e+00 2.267426e+00 1.840493e+00 2.241081e+00 1.582878e+00 1.873850e+00 1.433760e+00 1.701517e+00
<GCONST> 9.358855e+01
<TRANSP> 5
 0.000000e+00 1.000000e+00 0.000000e+00 0.000000e+00 0.000000e+00
 0.000000e+00 3.263976e-01 6.736025e-01 0.000000e+00 0.000000e+00
 0.000000e+00 0.000000e+00 4.501466e-01 5.498533e-01 0.000000e+00
 0.000000e+00 0.000000e+00 0.000000e+00 8.986986e-01 1.013014e-01
 0.000000e+00 0.000000e+00 0.000000e+00 0.000000e+00 0.000000e+00
<ENDHMM>
~h "ay"
<BEGINHMM>
<NUMSTATES> 5
<STATE> 2
<MEAN> 25
 9.927295e+00 -4.585556e+00 -4.973151e+00 -5.331059e+00 -6.780544e+00 -8.050738e+00 -4.437353e+00 -2.707768e+00 -2.833228e+00 -2.268495e+00 7.974660e-01 3.979731e+00 1.199065e+00 1.607124e-01 -7.944351e-01 9.088949e-01 1.055577e+00 1.082784e-02 -1.046679e+00 -1.222050e+00 -1.517688e+00 -1.218336e+00 9.899506e-02 1.052863e+00 -1.002087e-01
<VARIANCE> 25
 2.142071e+01 1.370918e+01 2.635875e+01 1.573086e+01 2.096103e+01 3.351509e+01 1.049514e+01 2.837755e+01 1.775756e+01 1.663657e+01 1.480584e+01 2.272311e+01 3.487807e+00 1.510381e+00 1.214267e+00 1.789343e+00 3.740306e+00 4.217966e+00 1.533849e+00 3.177990e+00 1.301694e+00 1.129633e+00 1.106086e+00 2.276196e+00 1.225903e+00
<GCONST> 8.970750e+01
<STATE> 3
<MEAN> 25
 1.056106e+01 -3.311037e+00 -5.148831e+00 5.786477e+00 5.467513e+00 -5.597777e+00 -9.369559e+00 -7.154287e+00 -8.476120e+00 -6.861810e+00 -8.239179e-01 4.492306e+00 -5.586207e-01 6.935221e-01 1.032604e+00 2.143834e+00 1.747675e+00 1.296808e-01 -2.771368e-01 6.001276e-01 3.492362e-02 -4.783155e-01 -8.802357e-01 -1.195070e+00 -1.033588e+00
<VARIANCE> 25
 6.142615e+00 4.217614e+00 1.169887e+01 3.269230e+01 2.085498e+01 1.610567e+01 8.978280e+00 1.005720e+01 7.852000e+00 8.210052e+00 9.745671e+00 1.197690e+01 6.841536e-01 4.006617e-01 1.557887e+00 1.944716e+00 1.801075e+00 1.421221e+00 1.552423e+00 1.195008e+00 1.446548e+00 8.660079e-01 9.107950e-01 1.161478e+00 3.142678e-01
<GCONST> 7.489006e+01
<STATE> 4
<MEAN> 25
 3.438197e+00 9.905619e-01 1.402945e+00 6.440123e+00 5.850905e+00 -3.523474e-01 -5.274695e+00 -3.824573e+00 -4.618942e+00 -3.812118e+00 -6.867535e-01 1.723983e+00 -1.730776e+00 6.099568e-01 4.905819e-01 -1.673825e+00 -1.220532e+00 1.028061e+00 1.380039e+00 5.274338e-01 8.106506e-01 1.175977e+00 7.261647e-01 9.885760e-02 -1.279061e+00
<VARIANCE> 25
 1.668442e+01 7.627594e+00 1.198409e+01 6.011703e+01 4.349502e+01 1.746253e+01 1.951781e+01 7.765150e+00 9.944637e+00 1.618971e+01 1.390542e+01 1.526436e+01 1.370500e+00 1.334290e+00 1.531204e+00 3.552063e+00 2.400439e+00 2.083008e+00 2.247667e+00 8.423615e-01 1.073299e+00 1.177078e+00 1.284979e+00 1.500903e+00 1.118401e+00
<GCONST> 8.501339e+01
<TRANSP> 5
 0.000000e+00 1.000000e+00 0.000000e+00 0.000000e+00 0.000000e+00
 0.000000e+00 8.259490e-01 1.740511e-01 0.000000e+00 0.000000e+00
 0.000000e+00 0.000000e+00 7.911143e-01 2.088857e-01 0.000000e+00
 0.000000e+00 0.000000e+00 0.000000e+00 8.381129e-01 1.618871e-01
 0.000000e+00 0.000000e+00 0.000000e+00 0.000000e+00 0.000000e+00
<ENDHMM>
~h "ch"
<BEGINHMM>
<NUMSTATES> 5
<STATE> 2
<MEAN> 25
 -4.126128e+00 -1.367669e+01 4.116501e+00 1.031537e+01 2.731820e+00 -1.419313e+00 -3.341697e+00 -4.950639e+00 2.475135e+00 4.130158e+00 -2.266971e+00 -3.995441e-01 -4.243171e-01 -1.181094e+00 1.082021e-01 1.650225e-01 -4.739275e-01 1.101632e-01 1.701896e-01 -6.082090e-02 7.231805e-01 7.259661e-01 -9.399220e-02 3.689049e-01 1.850572e-01
<VARIANCE> 25
 2.452908e+01 1.401089e+02 2.021013e+01 2.756651e+01 9.213772e+00 3.426425e+01 2.278383e+01 3.707251e+01 2.422440e+01 3.163367e+01 2.038901e+01 7.663816e+00 1.741400e+00 5.546160e+00 4.184289e+00 2.995629e+00 1.351429e+00 3.528390e+00 1.213431e+00 1.357795e+00 2.523471e+00 1.654018e+00 1.946149e+00 1.388635e+00 7.930290e-01
<GCONST> 9.364754e+01
<STATE> 3
<MEAN> 25
 -2.949441e+00 -7.279696e-01 -1.346590e+00 8.701690e-01 7.138973e-01 4.956236e+00 2.501963e+00 3.815315e-01 7.395442e-01 3.054840e+00 3.259499e+00 2.453237e+00 5.340761e-02 9.676507e-02 -1.783234e-01 -9.825055e-02 -7.448958e-02 1.914153e-03 6.149197e-02 7.451184e-02 2.253830e-02 -4.333428e-02 1.630175e-01 1.378965e-01 -5.418641e-02
<VARIANCE> 25
 1.062841e+01 3.596048e+01 5.925856e+00 5.359409e+00 3.652046e+00 1.353376e+01 9.153099e+00 2.909590e+01 9.762925e+00 1.072116e+01 7.846633e+00 3.416333e+00 4.116850e-01 2.022403e+00 5.293384e-01 6.193241e-01 6.925192e-01 7.099009e-01 5.004386e-01 5.913033e-01 9.707855e-01 9.477756e-01 9.828260e-01 3.462869e-01 2.273678e-01
<GCONST> 6.690720e+01
<STATE> 4
<MEAN> 25
 -5.750301e-01 -1.003837e+01 1.558513e+00 7.070342e+00 1.076569e+00 -5.025452e-01 -1.030614e+00 -3.934719e+00 9.790726e-01 2.809561e+00 -3.473862e+00 1.418253e+00 1.706610e+00 1.188139e+00 -4.622917e-01 -2.063868e-01 3.695728e-01 -5.564009e-01 -9.706078e-01 -6.546572e-01 -1.175822e+00 -1.713180e+00 -1.172315e+00 -5.616124e-01 7.063254e-01
<VARIANCE> 25
 5.403505e+01 1.023389e+02 2.594428e+01 2.154556e+01 1.437473e+01 2.460177e+01 2.362353e+01 3.865334e+01 4.917577e+01 4.060514e+01 2.099047e+01 1.154201e+01 5.174902e+00 1.934960e+01 4.795449e+00 3.660412e+00 1.429341e+00 2.121554e+00 1.741044e+00 1.544771e+00 2.599138e+00 5.891564e+00 2.236156e+00 9.148870e-01 1.187681e+00
<GCONST> 9.985246e+01
<TRANSP> 5
 0.000000e+00 1.000000e+00 0.000000e+00 0.000000e+00 0.000000e+00
 0.000000e+00 8.446916e-01 1.553085e-01 0.000000e+00 0.000000e+00
 0.000000e+00 0.000000e+00 8.232271e-01 1.767728e-01 0.000000e+00
 0.000000e+00 0.000000e+00 0.000000e+00 8.480139e-01 1.519862e-01
 0.000000e+00 0.000000e+00 0.000000e+00 0.000000e+00 0.000000e+00
<ENDHMM>
~h "dh"
<BEGINHMM>
<NUMSTATES> 5
<STATE> 2
<MEAN> 25
 4.477654e+00 1.100118e+00 1.466312e+00 2.578245e+00 2.650276e-01 -2.375637e+00 -2.479588e+00 -2.010529e+00 -3.650854e+00 -5.665289e+00 -3.487046e+00 1.184556e-01 5.133759e-01 -2.152019e-01 -2.385896e-01 5.067862e-01 -1.960392e-01 -9.266375e-01 -3.955747e-01 9.801614e-01 1.069990e-01 -1.611019e+00 -1.563101e+00 2.923312e-01 2.029289e-01
<VARIANCE> 25
 2.894142e+01 1.548957e+01 1.601258e+01 1.710676e+01 4.161925e+01 7.450607e+01 2.033534e+01 2.161459e+01 9.887897e+00 4.259445e+01 4.239957e+01 4.305426e+00 2.644696e+00 1.154675e+00 1.769454e+00 1.976160e+00 2.282764e+00 4.999134e+00 1.891289e+00 2.039151e+00 8.538861e-01 6.382691e+00 4.292735e+00 4.294615e-01 2.201251e+00
<GCONST> 9.228945e+01
<STATE> 3
<MEAN> 25
 9.992415e+00 -4.708228e-01 -3.169563e+00 1.172135e+00 -2.550343e+00 -9.047837e+00 -5.053574e+00 1.560972e+00 -2.536748e+00 -1.296096e+01 -1.124246e+01 1.188510e+00 -3.955877e-01 6.496376e-01 -3.410000e-01 -5.095865e-01 7.394602e-01 1.575353e+00 9.101616e-01 -4.530942e-01 -2.295795e-01 7.432263e-01 6.534622e-01 -3.940281e-01 -6.745034e-01
<VARIANCE> 25
 5.008833e+00 1.275829e+01 2.155022e+01 2.803413e+01 2.260421e+01 2.529982e+01 1.023528e+01 2.547888e+01 1.248621e+01 3.329006e+01 2.454437e+01 6.415387e+00 7.010561e-01 4.766325e-01 5.890473e-01 1.108613e+00 1.486787e+00 3.459364e+00 1.103804e+00 1.650703e+00 1.798789e+00 4.191235e+00 1.252539e+00 1.165398e+00 3.760208e-01
<GCONST> 8.164538e+01
<STATE> 4
<MEAN> 25
 6.574999e+00 3.726003e+00 -3.289565e-01 2.052120e-01 -1.149916e+00 -2.891169e+00 -3.225969e+00 -1.932538e+00 -4.215849e+00 -7.057611e+00 -5.786818e+00 -8.180425e-01 -8.238646e-01 4.964630e-01 2.273036e-01 -4.237314e-01 -4.619750e-02 1.769168e+00 1.242694e+00 -2.102856e-02 2.431180e-01 2.082454e+00 1.443051e+00 2.722494e-02 -7.682620e-01
<VARIANCE> 25
 6.289000e+00 1.711521e+01 4.015478e+01 2.414441e+01 2.968423e+01 5.095836e+01 2.256062e+01 1.376629e+01 1.490924e+01 2.368183e+01 2.835583e+01 3.034381e+00 3.653886e-01 9.620443e-01 6.597936e-01 6.308777e-01 8.101339e-01 9.363666e-01 8.277533e-01 7.020521e-01 5.928668e-01 3.638135e+00 1.364143e+00 6.324586e-01 2.550167e-01
<GCONST> 7.739767e+01
<TRANSP> 5
 0.000000e+00 1.000000e+00 0.000000e+00 0.000000e+00 0.000000e+00
 0.000000e+00 8.203408e-01 1.796592e-01 0.000000e+00 0.000000e+00
 0.000000e+00 0.000000e+00 7.437871e-01 2.562130e-01 0.000000e+00
 0.000000e+00 0.000000e+00 0.000000e+00 4.220850e-02 9.577915e-01
 0.000000e+00 0.000000e+00 0.000000e+00 0.000000e+00 0.000000e+00
<ENDHMM>
~h "eh"
<BEGINHMM>
<NUMSTATES> 5
<STATE> 2
<MEAN> 25
 9.781301e-01 -3.140535e+00 2.824825e-02 3.236966e+00 8.219799e-01 1.465825e-01 1.882105e+00 -1.941524e-01 -1.746645e+00 1.551616e+00 1.173644e+00 1.788627e-01 1.132322e+00 -8.723143e-01 -3.152551e-01 4.185815e-01 -1.782526e-02 -1.282435e+00 -1.283006e+00 -1.027087e+00 -7.935401e-01 -5.639333e-01 -2.028582e-01 3.786986e-01 1.462077e+00
<VARIANCE> 25
 4.000272e+01 3.479191e+01 2.899283e+01 1.809735e+01 1.667910e+01 2.553792e+01 1.515133e+01 2.182908e+01 1.504051e+01 3.975229e+01 2.809643e+01 1.372008e+01 2.190316e+00 3.962440e+00 2.058614e+00 1.617893e+00 2.287599e+00 2.952525e+00 2.669245e+00 3.109492e+00 1.427967e+00 2.316142e+00 1.628748e+00 1.526458e+00 1.882694e+00
<GCONST> 9.378174e+01
<STATE> 3
<MEAN> 25
 7.120274e+00 -4.333913e+00 -1.225500e+00 6.092655e+00 3.277667e+00 -4.857340e+00 -5.919553e+00 -4.466654e+00 -5.273526e+00 -5.621305e+00 -1.769263e+00 2.011065e+00 2.110851e+00 -7.202954e-01 -1.313379e+00 1.495447e-01 4.606921e-01 -1.869497e+00 -3.005054e+00 -1.707744e+00 -1.043954e+00 -1.547019e+00 -1.975610e-01 1.161346e+00 1.788654e+00
<VARIANCE> 25
 3.365085e+01 1.284900e+01 2.621804e+01 3.603424e+01 1.861828e+01 1.487718e+01 3.607973e+01 2.348426e+01 1.476941e+01 4.049097e+01 1.490757e+01 1.466765e+01 2.413657e+00 2.161420e+00 3.285343e+00 2.698879e+00 3.095958e+00 1.834254e+00 2.348394e+00 2.377478e+00 2.064673e+00 3.133501e+00 2.731348e+00 1.531509e+00 1.102642e+00
<GCONST> 9.370094e+01
<STATE> 4
<MEAN> 25
 9.674189e+00 -4.078928e+00 -4.167875e+00 2.724557e+00 1.262049e+00 -7.571261e+00 -8.718758e+00 -5.555235e+00 -7.089140e+00 -7.453608e+00 -1.110580e+00 4.803743e+00 -2.852811e-01 3.890001e-01 2.011442e-01 -1.638529e-01 -1.304384e-01 2.692280e-01 4.283774e-01 2.257298e-01 3.581715e-02 6.827696e-02 -3.021067e-02 -1.802335e-01 -3.977963e-01
<VARIANCE> 25
 1.603115e+01 1.420971e+01 1.363106e+01 2.178545e+01 2.152024e+01 2.208907e+01 2.538696e+01 2.260434e+01 1.180624e+01 2.226382e+01 1.993805e+01 1.916610e+01 9.860044e-01 1.034369e+00 1.212387e+00 9.500098e-01 9.611608e-01 2.053719e+00 1.731490e+00 2.022297e+00 1.001855e+00 1.723456e+00 1.230191e+00 1.881885e+00 9.153481e-01
<GCONST> 8.449422e+01
<TRANSP> 5
 0.000000e+00 1.000000e+00 0.000000e+00 0.000000e+00 0.000000e+00
 0.000000e+00 5.212362e-01 4.787638e-01 0.000000e+00 0.000000e+00
 0.000000e+00 0.000000e+00 6.098250e-01 3.901750e-01 0.000000e+00
 0.000000e+00 0.000000e+00 0.000000e+00 8.900692e-01 1.099308e-01
 0.000000e+00 0.000000e+00 0.000000e+00 0.000000e+00 0.000000e+00
<ENDHMM>
~h "el"
<BEGINHMM>
<NUMSTATES> 5
<STATE> 2
<MEAN> 25
 1.035248e+01 -2.567411e+00 -3.207562e+00 -4.641574e+00 -7.750784e+00 -1.147026e+01 -5.726358e+00 -8.710298e-01 -1.065409e+00 -1.702982e+00 1.213406e+00 3.673495e+00 6.478526e-01 -1.614885e-02 -9.102370e-01 -9.112601e-02 -3.772179e-01 -1.010372e+00 -3.580585e-01 7.115236e-01 1.211672e+00 4.176401e-01 -2.563451e-01 -1.458143e-01 9.253100e-02
<VARIANCE> 25
 6.763867e+00 4.743007e+01 2.386436e+01 2.289333e+01 9.745490e+00 2.247003e+01 2.560290e+01 1.070656e+01 2.503464e+01 4.261938e+01 4.489428e+01 2.250117e+01 1.552680e+00 1.296581e+00 1.781894e+00 1.269521e+00 1.215575e+00 5.586633e+00 3.560841e+00 4.208053e-01 1.113457e+00 1.808725e+00 1.041494e+00 5.165213e-01 2.133405e+00
<GCONST> 8.758787e+01
<STATE> 3
<MEAN> 25
 7.739951e+00 -5.090817e-01 -3.107255e+00 -3.177536e+00 -6.851815e+00 -9.623121e+00 -4.225240e+00 -4.230440e-03 -4.759260e-01 -2.461231e+00 1.301576e+00 3.809025e+00 2.892674e-01 -2.221639e-01 -2.611333e-01 8.464713e-02 -1.520667e-02 -4.078131e-01 -4.208443e-01 1.063345e-01 -2.235544e-01 -7.842327e-01 -5.877338e-01 -1.012262e-01 2.605417e-01
<VARIANCE> 25
 4.278143e+01 6.384295e+00 1.479607e+01 2.922473e+01 5.774931e+00 4.663312e+01 2.355887e+01 1.160051e+01 2.127354e+01 6.883953e+01 6.240276e+01 2.160368e+01 1.916621e+00 6.799980e-01 1.806189e+00 1.666463e+00 7.695526e-01 2.511059e+00 1.307416e+00 1.784557e+00 1.657293e+00 2.275272e+00 3.057413e+00 1.488144e+00 1.175987e+00
<GCONST> 8.920565e+01
<STATE> 4
<MEAN> 25
 5.628669e+00 2.828589e+00 -7.261252e-02 2.250279e+00 3.990215e-01 -4.798100e+00 -4.281173e+00 1.703139e+00 2.241513e+00 -3.453147e+00 -5.892550e+00 -3.725965e+00 -5.059761e-01 1.303819e-01 2.474382e-01 9.039381e-02 3.207009e-01 6.656260e-01 4.495201e-01 -3.119716e-02 5.202363e-02 4.445153e-01 2.922894e-01 -5.247629e-02 -4.039301e-01
<VARIANCE> 25
 5.016244e+01 1.053981e+01 1.059508e+01 7.371936e+00 1.206070e+01 6.236992e+01 3.753918e+01 1.376151e+01 1.530420e+01 6.017476e+01 6.580172e+01 2.338294e+01 2.657470e-01 4.269771e-01 4.565992e-01 4.918978e-01 7.688718e-01 8.935512e-01 9.609525e-01 9.091530e-01 1.574207e+00 1.492380e+00 1.620455e+00 1.058049e+00 1.224136e-01
<GCONST> 7.872253e+01
<TRANSP> 5
 0.000000e+00 1.000000e+00 0.000000e+00 0.000000e+00 0.000000e+00
 0.000000e+00 7.463269e-01 2.536731e-01 0.000000e+00 0.000000e+00
 0.000000e+00 0.000000e+00 8.540923e-01 1.459077e-01 0.000000e+00
 0.000000e+00 0.000000e+00 0.000000e+00 9.639133e-01 3.608674e-02
 0.000000e+00 0.000000e+00 0.000000e+00 0.000000e+00 0.000000e+00
<ENDHMM>
~h "en"
<BEGINHMM>
<NUMSTATES> 5
<STATE> 2
<MEAN> 25
 6.873137e+00 4.332296e+00 6.953636e-01 2.746098e+00 2.766742e+00 1.483445e+00 -1.919284e+00 -3.484727e+00 -2.478305e+00 -3.522083e+00 -5.111460e+00 -3.541424e+00 -7.009234e-01 4.072497e-01 8.412483e-01 5.953445e-01 5.303517e-01 8.744351e-01 7.374467e-01 1.419226e-01 -5.236993e-02 3.089682e-01 5.879823e-01 5.606478e-01 -5.551078e-01
<VARIANCE> 25
 3.168710e+00 2.967944e+00 5.711591e+00 2.681152e+00 2.452032e+00 6.960717e+00 5.745147e+00 6.424206e+00 2.597662e+00 6.931515e+00 4.986547e+00 7.208559e+00 8.922441e-02 2.474163e-01 4.099480e-01 5.626839e-01 1.230963e+00 5.166408e-01 2.761471e-01 9.004145e-01 6.124061e-01 4.496843e-01 4.926236e-01 5.598007e-01 5.114803e-02
<GCONST> 5.116003e+01
<STATE> 3
<MEAN> 25
 1.085805e+00 5.277319e+00 5.225995e+00 4.392741e+00 3.820319e+00 5.021855e+00 3.155182e+00 1.286793e+00 -1.075134e-01 -6.987917e-02 -1.699805e-03 -1.022371e+00 -1.049150e+00 -4.974198e-01 -4.336727e-02 -6.185482e-02 -1.607880e-01 5.722308e-02 2.922170e-01 5.926036e-01 5.061140e-01 5.741783e-01 4.890372e-01 -9.032986e-02 -5.759879e-01
<VARIANCE> 25
 5.132374e+00 2.335314e+00 2.717518e+00 1.649336e+00 4.442857e+00 6.430091e+00 2.280587e+00 3.942882e+00 4.100075e+00 5.752928e+00 4.770335e+00 5.192259e+00 8.820369e-02 4.659764e-01 9.265427e-01 3.928838e-01 2.428485e-01 5.831838e-01 4.210509e-01 5.747352e-01 2.969414e-01 4.938931e-01 7.920855e-01 9.130433e-01 4.097112e-02
<GCONST> 4.883537e+01
<STATE> 4
<MEAN> 25
 -3.006534e+00 1.339485e+00 1.546898e+00 6.636434e-01 9.287546e-01 2.454318e+00 1.304677e+00 6.581880e-01 1.094711e+00 1.463929e+00 2.167782e+00 7.573407e-01 -4.685175e-01 -6.837514e-01 -6.930837e-01 -6.970239e-01 -1.866926e-01 -2.931094e-01 -2.836991e-01 -3.109251e-01 -1.938270e-01 -8.481120e-02 1.759752e-01 5.820518e-01 -1.618478e-01
<VARIANCE> 25
 1.358739e+00 1.908346e+00 3.181461e+00 5.060060e+00 5.027228e+00 5.273748e+00 5.162389e+00 3.815199e+00 2.446476e+00 6.018774e+00 4.350201e+00 4.944000e+00 1.617160e-01 2.082129e-01 4.167267e-01 5.173934e-01 3.750963e-01 5.273200e-01 6.053810e-01 7.419211e-01 3.221872e-01 6.331425e-01 6.307135e-01 6.699358e-01 9.472941e-02
<GCONST> 4.954018e+01
<TRANSP> 5
 0.000000e+00 1.000000e+00 0.000000e+00 0.000000e+00 0.000000e+00
 0.000000e+00 8.649560e-01 1.350441e-01 0.000000e+00 0.000000e+00
 0.000000e+00 0.000000e+00 8.182468e-01 1.817532e-01 0.000000e+00
 0.000000e+00 0.000000e+00 0.000000e+00 7.648643e-01 2.351358e-01
 0.000000e+00 0.000000e+00 0.000000e+00 0.000000e+00 0.000000e+00
<ENDHMM>
~h "er"
<BEGINHMM>
<NUMSTATES> 5
<STATE> 2
<MEAN> 25
 1.062878e+01 4.122158e+00 -6.685776e+00 -7.038346e+00 -2.231283e+00 -3.864441e+00 -6.223621e+00 -4.212629e+00 -3.809961e+00 -5.134252e+00 -5.257243e+00 -2.233621e+00 -3.163323e-01 4.023907e-01 1.879427e-01 -4.105985e-01 -8.133808e-02 7.121655e-01 6.829090e-01 1.586808e-01 2.125800e-01 3.982684e-01 1.626979e-01 -1.170087e-01 -3.259205e-01
<VARIANCE> 25
 7.159710e+00 1.273130e+01 5.805499e+00 1.716613e+01 1.913517e+01 2.321007e+01 1.819132e+01 1.198243e+01 1.524783e+01 1.342222e+01 1.136640e+01 1.178122e+01 3.546207e-01 3.860012e-01 5.276809e-01 6.898196e-01 7.454037e-01 1.140182e+00 9.999100e-01 1.047428e+00 1.159571e+00 5.523256e-01 8.186080e-01 9.430965e-01 3.424480e-01
<GCONST> 7.186868e+01
<STATE> 3
<MEAN> 25
 3.712552e+00 5.074177e+00 -1.708191e+00 -5.927598e+00 -1.612132e+00 3.702124e+00 3.335084e+00 -1.091312e-01 -1.351197e+00 -6.447456e-01 -6.148487e-01 5.798729e-02 -1.172656e+00 -2.971213e-02 9.049980e-01 7.097779e-01 2.630294e-01 8.832195e-01 1.498079e+00 1.117642e+00 9.571408e-01 9.180064e-01 1.018188e+00 3.013545e-01 -7.308487e-01
<VARIANCE> 25
 1.051637e+01 2.459277e+01 5.006026e+00 2.044402e+01 1.710211e+01 1.090456e+01 1.509805e+01 1.351643e+01 1.339143e+01 1.160443e+01 1.153432e+01 8.632159e+00 8.119042e-01 1.830184e+00 4.479998e-01 1.023122e+00 1.390152e+00 9.799891e-01 7.473679e-01 1.308073e+00 2.120456e+00 1.037283e+00 1.475126e+00 1.256112e+00 1.726060e-01
<GCONST> 7.587507e+01
<STATE> 4
<MEAN> 25
 -4.636754e+00 2.476655e+00 1.182959e+00 -3.058229e+00 -2.359576e+00 2.522982e+00 4.641515e+00 3.406148e+00 2.478670e+00 2.335716e+00 1.357633e+00 1.519493e-01 -6.017692e-01 -3.653554e-01 1.138889e-01 2.830257e-01 8.513540e-02 -1.919314e-01 -1.487238e-01 6.214768e-03 -1.024354e-03 1.109647e-01 1.253083e-01 7.684563e-02 -3.053068e-01
<VARIANCE> 25
 1.242437e+01 9.319927e+00 4.208191e+00 8.044005e+00 1.111510e+01 1.116704e+01 1.768636e+01 1.671846e+01 1.947683e+01 1.513107e+01 8.986892e+00 7.482626e+00 3.702382e-01 3.996584e-01 5.610888e-01 6.062058e-01 6.183398e-01 8.116453e-01 1.185339e+00 1.123666e+00 1.071796e+00 8.744592e-01 7.450241e-01 7.815122e-01 9.722760e-02
<GCONST> 6.829729e+01
<TRANSP> 5
 0.000000e+00 1.000000e+00 0.000000e+00 0.000000e+00 0.000000e+00
 0.000000e+00 8.725714e-01 1.274286e-01 0.000000e+00 0.000000e+00
 0.000000e+00 0.000000e+00 7.490497e-01 2.509503e-01 0.000000e+00
 0.000000e+00 0.000000e+00 0.000000e+00 9.206570e-01 7.934301e-02
 0.000000e+00 0.000000e+00 0.000000e+00 0.000000e+00 0.000000e+00
<ENDHMM>
~h "ey"
<BEGINHMM>
<NUMSTATES> 5
<STATE> 2
<MEAN> 25
 6.556736e+00 2.045967e-01 -7.067529e-01 1.832424e+00 1.267051e-01 -4.091069e+00 -4.634162e+00 -1.917888e+00 -3.095167e+00 -4.276042e+00 -2.874531e+00 -9.398310e-01 1.373950e+00 -1.501926e+00 -1.261736e+00 2.828543e-01 6.691279e-01 -1.254108e+00 -2.142071e+00 -1.423223e+00 -1.512108e+00 -1.444541e+00 1.508351e-03 8.301407e-01 1.635452e+00
<VARIANCE> 25
 4.471175e+01 3.688516e+01 2.940288e+01 3.037562e+01 2.931493e+01 4.244032e+01 5.130616e+01 3.047647e+01 3.942763e+01 4.242373e+01 2.126085e+01 2.741098e+01 3.026821e+00 3.374914e+00 2.488428e+00 1.406170e+00 2.732221e+00 3.796038e+00 5.577157e+00 4.764097e+00 3.071668e+00 3.268091e+00 3.909720e+00 2.792195e+00 1.267956e+00
<GCONST> 1.025500e+02
<STATE> 3
<MEAN> 25
 1.065239e+01 -5.016398e+00 -5.176004e+00 2.449483e+00 3.449217e+00 -7.477160e+00 -1.209898e+01 -8.081480e+00 -8.916990e+00 -8.580112e+00 3.408420e-02 4.523252e+00 4.371549e-02 -5.834332e-01 4.841094e-02 5.411670e-01 4.453123e-01 -7.352763e-01 -1.049029e+00 -5.746500e-01 -1.547748e-01 1.035807e-02 3.246983e-01 5.131840e-01 3.956043e-01
<VARIANCE> 25
 7.412540e+00 1.550786e+01 1.344463e+01 2.115510e+01 2.531989e+01 1.608353e+01 2.257423e+01 2.196915e+01 1.743452e+01 1.605389e+01 9.349105e+00 9.362843e+00 6.242657e-01 9.529986e-01 1.168419e+00 1.243160e+00 1.308092e+00 1.058330e+00 2.511759e+00 2.579723e+00 1.841301e+00 1.787962e+00 1.400225e+00 1.418463e+00 5.977486e-01
<GCONST> 8.207526e+01
<STATE> 4
<MEAN> 25
 8.615124e+00 -4.276211e+00 -1.588024e+00 8.164831e+00 7.076739e+00 -6.015688e+00 -1.273819e+01 -7.772976e+00 -5.755252e+00 -7.133540e+00 -2.378489e+00 1.978131e+00 -2.800072e-01 3.699231e-01 3.191873e-01 1.427185e-01 1.114995e-01 4.058421e-01 4.056066e-01 2.978899e-01 3.016674e-01 2.701317e-01 -1.484067e-01 -3.625963e-01 -4.244649e-01
<VARIANCE> 25
 9.284208e+00 1.231437e+01 9.298997e+00 3.048565e+01 4.232183e+01 2.689846e+01 2.936760e+01 2.848589e+01 2.726135e+01 2.090656e+01 1.135922e+01 1.760041e+01 3.528740e-01 6.082569e-01 5.421941e-01 1.036991e+00 9.980896e-01 1.115095e+00 1.566234e+00 1.219067e+00 1.442412e+00 1.041696e+00 8.308644e-01 9.392514e-01 4.033890e-01
<GCONST> 7.963387e+01
<TRANSP> 5
 0.000000e+00 1.000000e+00 0.000000e+00 0.000000e+00 0.000000e+00
 0.000000e+00 7.327405e-01 2.672595e-01 0.000000e+00 0.000000e+00
 0.000000e+00 0.000000e+00 5.687537e-01 4.312463e-01 0.000000e+00
 0.000000e+00 0.000000e+00 0.000000e+00 9.157612e-01 8.423876e-02
 0.000000e+00 0.000000e+00 0.000000e+00 0.000000e+00 0.000000e+00
<ENDHMM>
~h "hh"
<BEGINHMM>
<NUMSTATES> 5
<STATE> 2
<MEAN> 25
 -1.273555e+00 -2.328301e+00 -2.659129e+00 -3.713185e+00 -3.847330e+00 1.077364e+00 3.874257e+00 1.559630e+00 -1.312572e+00 -6.996218e-01 -3.792858e-01 -7.784082e-01 -1.100512e-01 -3.103708e-01 -2.144091e-01 -8.566200e-02 -8.136074e-02 1.353210e-01 -7.848272e-02 -4.594521e-01 -5.144709e-02 3.441010e-01 1.966828e-01 4.787743e-02 -4.486005e-02
<VARIANCE> 25
 1.501100e+01 2.684573e+01 1.002968e+01 1.347236e+01 2.085814e+01 1.309276e+01 1.435725e+01 1.854772e+01 3.496188e+01 2.016271e+01 1.455360e+01 1.788000e+01 2.132171e-01 5.558053e-01 6.140256e-01 8.018953e-01 1.020539e+00 8.255698e-01 4.837825e-01 9.680247e-01 7.481934e-01 8.985899e-01 1.037399e+00 9.602312e-01 9.811741e-02
<GCONST> 7.367232e+01
<STATE> 3
<MEAN> 25
 -9.510338e-02 -3.563531e+00 -6.020916e+00 -5.553767e+00 -4.610328e+00 -1.364300e-01 1.094630e+00 -2.100916e-01 4.034670e-01 2.136238e+00 1.265257e+00 7.095730e-02 1.101156e-01 -1.113760e-01 -4.483516e-01 -3.170923e-01 -2.067745e-01 -2.131333e-01 -3.560511e-01 -2.479554e-01 1.193765e-01 2.146252e-01 1.195668e-01 -2.135273e-02 4.349256e-02
<VARIANCE> 25
 8.627073e+00 2.577929e+01 2.008263e+01 1.996915e+01 1.846149e+01 1.554472e+01 1.176605e+01 1.756223e+01 2.139444e+01 1.287373e+01 1.400237e+01 2.350032e+01 1.840390e-01 2.967238e-01 3.082212e-01 4.139527e-01 6.774340e-01 4.771548e-01 8.928812e-01 8.578871e-01 4.786646e-01 9.532315e-01 8.650692e-01 7.804321e-01 1.364421e-01
<GCONST> 7.021860e+01
<STATE> 4
<MEAN> 25
 -3.036939e+00 5.716014e-01 -1.269123e+00 -2.042675e+00 3.417087e-02 3.125737e+00 2.277192e+00 5.088412e-01 1.910668e+00 4.147141e+00 2.940932e+00 1.502944e-01 2.197425e-01 -1.400706e-01 -2.004716e-01 2.664858e-02 1.037215e-01 1.846973e-02 9.428823e-02 3.122757e-02 1.358218e-02 7.560209e-02 5.266613e-02 1.907702e-02 2.003570e-01
<VARIANCE> 25
 7.304299e+00 1.279560e+01 1.390681e+01 4.362687e+00 4.134093e+00 7.639414e+00 5.777110e+00 8.023185e+00 7.241539e+00 6.198231e+00 6.804287e+00 6.499784e+00 3.124685e-01 7.628104e-01 5.452082e-01 3.436126e-01 3.120584e-01 6.730876e-01 6.330254e-01 6.342580e-01 5.680016e-01 5.918973e-01 6.795474e-01 4.526919e-01 4.987226e-01
<GCONST> 6.092575e+01
<TRANSP> 5
 0.000000e+00 1.000000e+00 0.000000e+00 0.000000e+00 0.000000e+00
 0.000000e+00 7.388972e-01 2.611028e-01 0.000000e+00 0.000000e+00
 0.000000e+00 0.000000e+00 7.396883e-01 2.603116e-01 0.000000e+00
 0.000000e+00 0.000000e+00 0.000000e+00 9.219708e-01 7.802915e-02
 0.000000e+00 0.000000e+00 0.000000e+00 0.000000e+00 0.000000e+00
<ENDHMM>
~h "ih"
<BEGINHMM>
<NUMSTATES> 5
<STATE> 2
<MEAN> 25
 7.311801e+00 -1.325411e+00 9.556420e-01 9.670549e+00 7.501538e+00 -3.145812e+00 -7.397695e+00 -3.501015e+00 -3.824415e+00 -6.740975e+00 -3.706500e+00 1.075634e+00 2.782541e-01 -1.730944e-02 3.967394e-02 4.312285e-01 2.446275e-01 -4.438065e-01 -6.137945e-01 -1.867645e-01 -1.330023e-01 -1.147473e-01 -1.191363e-01 3.077495e-02 1.470370e-01
<VARIANCE> 25
 1.934078e+01 1.815974e+01 2.311472e+01 3.750450e+01 2.502983e+01 3.502520e+01 3.848183e+01 1.856493e+01 2.483047e+01 2.976019e+01 1.731662e+01 1.436442e+01 1.459875e+00 1.687211e+00 1.264203e+00 3.064006e+00 1.314565e+00 2.725452e+00 2.380837e+00 1.845709e+00 1.218445e+00 2.607141e+00 1.277079e+00 1.210600e+00 7.399545e-01
<GCONST> 9.034495e+01
<STATE> 3
<MEAN> 25
 5.497112e+00 2.817659e-01 1.944382e+00 7.462443e+00 6.726201e+00 -5.144352e-01 -6.089867e+00 -5.664752e+00 -4.440220e+00 -3.537179e+00 -2.650763e+00 -6.438987e-01 -5.849240e-01 9.137767e-01 1.249281e-01 -1.186751e+00 -6.407353e-01 9.592563e-01 1.119547e+00 1.144546e-01 1.066926e-01 5.781280e-01 4.342295e-01 -2.300649e-01 -7.323791e-01
<VARIANCE> 25
 2.026835e+01 1.511406e+01 2.516141e+01 4.354923e+01 2.622611e+01 2.802723e+01 2.619356e+01 2.038840e+01 1.846880e+01 2.253396e+01 1.319752e+01 1.610592e+01 9.286973e-01 1.061525e+00 1.235634e+00 1.334008e+00 1.067632e+00 2.293166e+00 1.804497e+00 2.039868e+00 1.430317e+00 1.669272e+00 7.122089e-01 9.072443e-01 1.091026e+00
<GCONST> 8.614627e+01
<STATE> 4
<MEAN> 25
 1.637290e+00 3.069648e+00 2.653678e+00 3.803767e+00 3.666309e+00 1.862635e+00 -5.678409e-01 -1.828872e+00 -1.591948e+00 -9.482459e-01 -7.097924e-01 -1.328681e+00 -6.119189e-01 4.557173e-02 -1.116967e-01 -7.723241e-01 -6.108550e-01 2.508098e-01 8.310572e-01 6.211387e-01 5.713968e-01 3.412196e-01 2.852978e-01 9.550465e-03 -3.873457e-01
<VARIANCE> 25
 3.282637e+01 1.526593e+01 2.348882e+01 2.137941e+01 1.735867e+01 2.375105e+01 2.811151e+01 2.468903e+01 1.580703e+01 1.923174e+01 1.156902e+01 1.308935e+01 7.874746e-01 1.178350e+00 1.581129e+00 1.549109e+00 1.128067e+00 1.445892e+00 1.313610e+00 1.471227e+00 1.037125e+00 1.585703e+00 7.844197e-01 6.966582e-01 6.706533e-01
<GCONST> 8.314698e+01
<TRANSP> 5
 0.000000e+00 1.000000e+00 0.000000e+00 0.000000e+00 0.000000e+00
 0.000000e+00 8.282400e-01 1.717600e-01 0.000000e+00 0.000000e+00
 0.000000e+00 0.000000e+00 5.555886e-01 4.444114e-01 0.000000e+00
 0.000000e+00 0.000000e+00 0.000000e+00 5.741695e-01 4.258305e-01
 0.000000e+00 0.000000e+00 0.000000e+00 0.000000e+00 0.000000e+00
<ENDHMM>
~h "iy"
<BEGINHMM>
<NUMSTATES> 5
<STATE> 2
<MEAN> 25
 7.088013e+00 -1.973455e+00 -7.200193e-01 1.193804e+01 8.922743e+00 -4.665521e+00 -7.466090e+00 -1.139445e+00 -4.016918e+00 -7.812235e+00 -2.766012e+00 2.413458e+00 2.522534e-01 -2.047092e-03 -1.278049e-01 2.734084e-01 1.200564e-01 -3.978876e-01 -2.346716e-01 2.702791e-01 1.292101e-01 -2.560842e-01 -1.367281e-01 6.847739e-02 8.831441e-02
<VARIANCE> 25
 1.816063e+01 8.390461e+00 4.248284e+01 4.275527e+01 2.118233e+01 2.117331e+01 2.752426e+01 1.890637e+01 1.152161e+01 2.050979e+01 7.870156e+00 1.048145e+01 4.034995e-01 8.830919e-01 1.192570e+00 2.884442e+00 1.325366e+00 1.959379e+00 1.186943e+00 1.276269e+00 1.159865e+00 1.774051e+00 6.726301e-01 7.991100e-01 2.869623e-01
<GCONST> 8.114168e+01
<STATE> 3
<MEAN> 25
 4.414632e+00 4.010052e+00 3.274276e+00 7.526953e+00 6.746840e+00 1.782526e+00 -1.374640e+00 4.387355e-01 -4.546779e-01 -3.088304e+00 -2.947001e+00 -1.689105e+00 -4.177395e-02 3.906483e-01 -2.205692e-03 -4.653919e-01 -2.585649e-04 7.160385e-01 4.682138e-01 -1.816399e-03 1.531988e-01 4.043561e-01 2.244944e-02 -1.851707e-01 -1.752410e-01
<VARIANCE> 25
 2.257436e+01 2.490761e+01 4.774298e+01 4.784827e+01 2.233596e+01 4.385035e+01 3.168462e+01 2.450012e+01 9.100834e+00 1.538390e+01 8.164251e+00 6.818153e+00 5.954087e-01 1.164489e+00 1.045145e+00 1.436010e+00 1.129533e+00 1.092368e+00 1.590480e+00 1.492853e+00 9.183986e-01 1.053842e+00 1.163937e+00 1.004823e+00 3.516098e-01
<GCONST> 8.270869e+01
<STATE> 4
<MEAN> 25
 4.182976e+00 -1.261362e+00 3.297339e+00 9.025379e+00 7.734069e+00 1.304496e+00 -2.911168e+00 -3.213870e+00 -2.716969e+00 -3.943455e+00 -3.963601e+00 -1.284313e+00 -1.458649e-01 3.361605e-01 -4.146714e-01 -9.414870e-01 -5.172497e-01 -2.242540e-02 3.624372e-02 -4.185772e-01 -4.640263e-01 4.858787e-02 1.346513e-01 -7.983145e-02 -2.817247e-01
<VARIANCE> 25
 2.421717e+01 2.777202e+01 2.640995e+01 5.467943e+01 1.959452e+01 3.222657e+01 3.902209e+01 3.730064e+01 1.596441e+01 2.026166e+01 1.233125e+01 1.232135e+01 2.638676e+00 3.805129e+00 2.250504e+00 4.743826e+00 1.642736e+00 4.812127e+00 7.639632e+00 4.252553e+00 9.594992e-01 2.595634e+00 1.505865e+00 1.852351e+00 3.020877e+00
<GCONST> 9.753385e+01
<TRANSP> 5
 0.000000e+00 1.000000e+00 0.000000e+00 0.000000e+00 0.000000e+00
 0.000000e+00 8.801592e-01 1.198408e-01 0.000000e+00 0.000000e+00
 0.000000e+00 0.000000e+00 6.525466e-01 3.474534e-01 0.000000e+00
 0.000000e+00 0.000000e+00 0.000000e+00 7.422215e-01 2.577784e-01
 0.000000e+00 0.000000e+00 0.000000e+00 0.000000e+00 0.000000e+00
<ENDHMM>
~h "jh"
<BEGINHMM>
<NUMSTATES> 5
<STATE> 2
<MEAN> 25
 -2.075345e+00 7.006804e+00 8.220422e+00 3.760392e+00 4.493940e+00 5.954536e+00 2.510129e+00 1.362116e+00 8.887862e-01 4.951603e-01 -7.102489e-01 -2.557934e+00 -7.342397e-02 -1.249475e-01 1.382385e-01 7.216685e-02 -1.289891e-01 -1.125031e-01 4.353461e-02 -2.348094e-02 5.510765e-02 2.117926e-01 1.594096e-01 2.513553e-02 -1.823306e-03
<VARIANCE> 25
 2.563830e+00 1.296542e+01 6.403172e+00 1.434276e+01 4.176722e+00 9.238857e+00 7.036839e+00 7.508956e+00 5.765219e+00 7.072384e+00 6.894139e+00 8.911937e+00 1.373218e-01 5.493128e-01 7.743940e-01 6.208396e-01 5.321094e-01 1.083863e+00 6.872483e-01 4.888808e-01 6.634702e-01 1.075946e+00 7.436325e-01 1.104837e+00 1.288239e-01
<GCONST> 6.187622e+01
<STATE> 3
<MEAN> 25
 -1.498781e+00 1.967648e+00 5.831151e+00 5.046399e+00 2.727157e+00 2.897233e+00 2.772507e+00 1.143359e-01 1.615186e+00 4.744892e+00 2.438771e+00 -1.479830e+00 2.087913e-01 -3.340625e+00 -4.741473e-01 6.280807e-01 -5.768881e-01 -1.420081e+00 -5.886607e-01 -9.944081e-01 -8.974269e-03 8.538493e-01 9.165890e-01 6.185679e-01 1.695260e+00
<VARIANCE> 25
 1.958657e+00 4.307542e+01 8.117733e+00 3.520296e+01 8.721515e+00 1.055364e+01 6.556036e+00 1.406176e+01 2.998508e+00 5.142021e+00 5.062373e+00 7.726150e+00 1.708625e+00 1.628101e+00 2.063757e+00 1.739076e+00 1.444434e+00 4.898338e-01 2.628248e+00 5.150628e+00 2.778243e+00 1.399550e+00 5.510500e-01 4.580918e-01 1.043534e+00
<GCONST> 7.606983e+01
<STATE> 4
<MEAN> 25
 3.106336e+00 -6.591933e+00 4.308552e+00 1.171890e+01 4.907931e+00 -3.146430e+00 -4.097260e+00 -2.943951e+00 -3.291004e+00 -4.122969e+00 -2.151137e+00 1.696729e-01 3.421140e-01 -9.521748e-02 -3.557513e-01 6.167296e-03 4.512108e-02 -4.034341e-01 -4.399747e-01 -8.434620e-02 -2.309208e-01 -5.104483e-01 -2.782222e-01 1.649596e-01 1.988447e-01
<VARIANCE> 25
 4.146273e+01 3.072603e+01 7.301445e+01 5.129570e+01 2.926228e+01 1.547054e+01 3.280201e+01 2.110448e+01 2.679853e+01 3.423759e+01 2.007363e+01 2.031925e+01 1.726107e+00 4.252016e+00 3.214594e+00 2.314689e+00 1.439206e+00 1.463665e+00 3.593342e+00 1.957598e+00 9.341602e-01 1.605367e+00 2.356359e+00 9.585212e-01 7.877905e-01
<GCONST> 9.449049e+01
<TRANSP> 5
 0.000000e+00 1.000000e+00 0.000000e+00 0.000000e+00 0.000000e+00
 0.000000e+00 8.189812e-01 1.810188e-01 0.000000e+00 0.000000e+00
 0.000000e+00 0.000000e+00 4.364046e-01 5.635955e-01 0.000000e+00
 0.000000e+00 0.000000e+00 0.000000e+00 9.385157e-01 6.148438e-02
 0.000000e+00 0.000000e+00 0.000000e+00 0.000000e+00 0.000000e+00
<ENDHMM>
~h "ng"
<BEGINHMM>
<NUMSTATES> 5
<STATE> 2
<MEAN> 25
 7.393096e+00 6.074290e+00 1.931261e+00 2.626637e+00 3.968676e+00 2.838719e+00 -4.625687e+00 -7.416075e+00 -1.626833e+00 1.468616e+00 -1.621102e+00 -4.919645e+00 -7.213233e-01 3.374885e-01 6.220890e-01 2.239655e-01 2.558762e-01 6.605515e-01 7.894698e-01 2.214615e-01 -3.424720e-01 -8.720002e-02 4.642041e-02 -2.441972e-01 -5.648422e-01
<VARIANCE> 25
 2.583274e+01 7.334335e+00 1.336900e+01 1.461093e+01 1.816341e+01 2.203066e+01 1.688917e+01 1.946110e+01 1.102727e+01 6.814175e+00 1.193347e+01 9.195326e+00 6.857009e-01 6.752138e-01 1.422286e+00 1.183420e+00 2.437482e+00 3.093137e+00 1.713794e+00 3.202639e+00 8.913961e-01 9.115128e-01 8.499716e-01 1.152142e+00 4.444766e-01
<GCONST> 7.970428e+01
<STATE> 3
<MEAN> 25
 3.270087e+00 5.069574e+00 1.714916e+00 -6.141571e-01 2.555656e-01 1.366490e+00 2.139303e+00 3.946996e-02 -1.974923e+00 -1.937835e+00 -1.434555e+00 -2.855275e+00 2.457665e-01 -7.933642e-01 -1.205169e+00 -1.354240e+00 -1.192901e+00 -4.585281e-01 9.533983e-01 1.138975e+00 -2.184681e-01 -1.036124e+00 -5.919472e-01 7.118285e-04 4.545984e-01
<VARIANCE> 25
 4.672701e+01 1.679621e+01 2.499948e+01 2.973887e+01 2.493561e+01 1.683043e+01 1.490205e+01 1.736966e+01 1.198784e+01 1.545884e+01 1.170575e+01 8.401379e+00 1.171775e+00 1.217353e+00 2.516190e+00 5.314013e+00 5.774119e+00 3.446633e+00 3.572780e+00 2.603137e+00 1.744902e+00 1.475374e+00 1.043224e+00 9.642543e-01 8.363387e-01
<GCONST> 8.957193e+01
<STATE> 4
<MEAN> 25
 -2.645512e-01 4.335480e-01 -2.919436e+00 -5.450848e+00 -3.317967e+00 2.884190e+00 5.911934e+00 1.887008e+00 -4.139955e+00 -3.724791e+00 -1.696766e+00 -1.824833e+00 -3.464336e-01 -3.739790e-01 -1.759560e-01 1.872298e-01 4.887566e-01 4.187400e-01 1.070357e-01 1.701679e-01 1.893674e-01 2.113269e-01 2.075879e-01 3.372066e-01 -2.029208e-01
<VARIANCE> 25
 3.101556e+01 2.610204e+01 1.391368e+01 2.890965e+01 3.018855e+01 1.362552e+01 1.586325e+01 1.143406e+01 2.174533e+01 1.038061e+01 8.405867e+00 8.453824e+00 7.512950e-01 6.519656e-01 1.150446e+00 1.181411e+00 1.630506e+00 1.852108e+00 1.157363e+00 1.553116e+00 2.726584e+00 2.092706e+00 9.694773e-01 9.572808e-01 4.359232e-01
<GCONST> 8.166470e+01
<TRANSP> 5
 0.000000e+00 1.000000e+00 0.000000e+00 0.000000e+00 0.000000e+00
 0.000000e+00 8.529018e-01 1.470982e-01 0.000000e+00 0.000000e+00
 0.000000e+00 0.000000e+00 6.729643e-01 3.270357e-01 0.000000e+00
 0.000000e+00 0.000000e+00 0.000000e+00 7.616884e-01 2.383116e-01
 0.000000e+00 0.000000e+00 0.000000e+00 0.000000e+00 0.000000e+00
<ENDHMM>
~h "ow"
<BEGINHMM>
<NUMSTATES> 5
<STATE> 2
<MEAN> 25
 -3.429598e+00 -2.448416e+00 5.569798e+00 -2.802444e-01 -1.444337e+00 8.707799e-01 6.559277e+00 -4.011135e-01 -4.081895e+00 1.817676e+00 9.297444e-01 -1.265334e+00 -4.319191e-01 -3.611088e-01 3.472705e-02 -1.581326e-01 -1.295005e-01 3.260586e-01 5.572965e-01 7.787332e-02 -2.735694e-02 3.457392e-01 2.172324e-01 8.056808e-02 -1.221365e-01
<VARIANCE> 25
 2.875364e+01 4.513936e+01 3.740141e+01 1.612326e+01 1.246936e+01 1.952923e+01 4.826752e+01 2.796012e+01 2.603288e+01 1.292968e+01 1.450087e+01 1.586040e+01 7.582043e-01 5.923543e-01 6.395026e-01 8.190058e-01 1.164006e+00 1.942724e+00 1.825384e+00 1.283615e+00 1.439873e+00 9.172899e-01 1.272215e+00 1.102885e+00 2.849650e-01
<GCONST> 8.305885e+01
<STATE> 3
<MEAN> 25
 -7.419162e-01 8.613331e-01 2.672210e+00 9.789410e-01 -6.391079e-01 9.431319e-01 2.770814e+00 1.142331e+00 -9.930643e-01 7.580784e-01 2.379676e-01 -1.014688e+00 2.990340e-02 2.167313e-01 -7.580681e-02 -1.985738e-02 -4.467623e-01 -9.207497e-01 -5.208493e-01 -1.322735e-02 2.665307e-01 -6.384027e-02 -1.372743e-01 3.743605e-01 -1.246970e-01
<VARIANCE> 25
 2.370945e+01 3.127875e+01 2.247659e+01 1.318910e+01 1.737168e+01 2.802451e+01 4.475113e+01 1.200940e+01 1.848624e+01 1.606816e+01 1.580842e+01 1.122054e+01 2.059191e+00 1.166471e+00 9.362321e-01 6.119473e-01 2.844179e+00 8.112919e+00 8.117773e+00 1.932791e+00 1.349438e+00 1.649814e+00 1.208427e+00 1.076175e+00 7.188511e-01
<GCONST> 8.853852e+01
<STATE> 4
<MEAN> 25
 5.191592e+00 4.581324e+00 1.890548e+00 6.672089e-01 -3.653296e+00 -7.308331e+00 -5.962813e+00 -1.235363e+00 8.875670e-01 -3.517751e-01 -9.155033e-01 -3.570168e-01 -2.282249e-01 -1.377882e-01 -5.906812e-02 -8.759830e-03 7.365006e-02 2.470118e-01 2.917870e-01 -5.091491e-02 5.248593e-02 1.347767e-01 1.218658e-01 8.949560e-02 -1.287230e-01
<VARIANCE> 25
 3.874464e+01 1.733073e+01 1.340934e+01 1.193216e+01 3.225665e+01 9.200560e+01 8.367174e+01 2.202223e+01 2.276024e+01 1.291902e+01 1.342780e+01 1.409271e+01 1.551569e+00 1.712774e+00 1.436193e+00 8.805593e-01 1.939523e+00 3.701738e+00 3.955148e+00 1.381673e+00 2.186312e+00 1.333756e+00 9.298974e-01 9.150953e-01 8.402488e-01
<GCONST> 8.958932e+01
<TRANSP> 5
 0.000000e+00 1.000000e+00 0.000000e+00 0.000000e+00 0.000000e+00
 0.000000e+00 6.678919e-01 3.321081e-01 0.000000e+00 0.000000e+00
 0.000000e+00 0.000000e+00 3.371666e-01 6.628334e-01 0.000000e+00
 0.000000e+00 0.000000e+00 0.000000e+00 7.542472e-01 2.457528e-01
 0.000000e+00 0.000000e+00 0.000000e+00 0.000000e+00 0.000000e+00
<ENDHMM>
~h "oy"
<BEGINHMM>
<NUMSTATES> 5
<STATE> 2
<MEAN> 25
 1.292312e+01 2.525733e+00 -1.311521e+00 -1.121548e+00 -9.940749e+00 -1.654901e+01 -1.203862e+01 -1.606169e+00 9.605151e-01 -2.967452e+00 -2.129285e+00 1.204592e+00 7.375909e-01 -3.897942e-01 -6.696317e-01 -4.075864e-01 -2.159327e-01 -4.043823e-01 -4.098516e-01 -4.719673e-02 -3.830782e-01 -7.627341e-01 -1.831864e-01 1.926493e-01 6.886448e-01
<VARIANCE> 25
 9.409538e+00 2.425887e+01 2.594327e+01 1.529832e+01 1.682299e+01 3.424342e+01 2.747023e+01 2.145568e+01 3.483405e+01 1.805532e+01 3.101328e+01 2.248689e+01 1.415750e+00 1.776617e+00 1.413751e+00 1.233162e+00 2.767874e+00 6.084061e+00 4.457208e+00 3.088472e+00 3.693760e+00 3.348224e+00 2.490839e+00 2.138794e+00 1.204012e+00
<GCONST> 9.438554e+01
<STATE> 3
<MEAN> 25
 1.359686e+01 -3.387259e+00 -6.495546e+00 -1.610396e+00 -2.988760e+00 -9.994982e+00 -9.893692e+00 -3.234504e+00 -5.132101e+00 -8.235821e+00 -1.888358e+00 3.053668e+00 -1.193132e-01 -2.090693e-01 -2.165988e-01 1.279662e+00 2.090133e+00 4.736561e-01 -7.236702e-01 -7.373525e-02 -1.770687e-01 -4.090451e-01 -1.089155e-01 -7.668174e-02 -2.722034e-01
<VARIANCE> 25
 7.102536e+00 8.718005e+00 1.185513e+01 2.118750e+01 4.458430e+01 1.411820e+01 3.080966e+01 3.762926e+01 1.900111e+01 2.557995e+01 2.612499e+01 1.753699e+01 3.085304e-01 4.363056e-01 7.891579e-01 2.120568e+00 2.913390e+00 1.584412e+00 2.943066e+00 3.539074e+00 3.139370e+00 3.684645e+00 2.074800e+00 3.151456e+00 2.663132e-01
<GCONST> 8.679815e+01
<STATE> 4
<MEAN> 25
 1.137815e+01 -2.806563e+00 -4.440065e+00 8.784651e+00 8.214538e+00 -7.425502e+00 -1.324786e+01 -1.890202e+00 -4.293943e+00 -1.145596e+01 -5.819261e+00 6.249985e-01 -5.253866e-01 5.448265e-01 8.773947e-01 4.497488e-01 4.363171e-01 9.091794e-01 7.386006e-01 1.504728e-01 1.533312e-02 8.910628e-02 -2.862326e-01 -4.782514e-01 -4.889669e-01
<VARIANCE> 25
 8.025699e+00 6.534187e+00 1.252342e+01 2.413823e+01 1.465394e+01 1.466458e+01 2.174039e+01 1.924256e+01 2.768406e+01 3.737833e+01 8.743178e+00 1.254935e+01 1.230937e-01 9.677205e-01 4.066609e-01 2.368376e+00 1.570897e+00 2.220339e+00 3.657049e+00 2.006448e+00 1.878332e+00 2.314746e+00 1.402800e+00 1.479587e+00 1.496649e-01
<GCONST> 8.004205e+01
<TRANSP> 5
 0.000000e+00 1.000000e+00 0.000000e+00 0.000000e+00 0.000000e+00
 0.000000e+00 8.896854e-01 1.103146e-01 0.000000e+00 0.000000e+00
 0.000000e+00 0.000000e+00 8.204127e-01 1.795873e-01 0.000000e+00
 0.000000e+00 0.000000e+00 0.000000e+00 8.349065e-01 1.650936e-01
 0.000000e+00 0.000000e+00 0.000000e+00 0.000000e+00 0.000000e+00
<ENDHMM>
~h "sh"
<BEGINHMM>
<NUMSTATES> 5
<STATE> 2
<MEAN> 25
 4.438264e+00 -3.590761e+00 -1.731820e+00 6.332452e+00 6.832168e+00 -2.241433e+00 -3.900490e+00 -2.873520e+00 -4.737067e+00 -3.689697e+00 -1.798031e+00 1.415089e+00 -1.271049e+00 -1.409115e+00 6.915389e-01 4.077765e-01 1.051125e-02 5.003242e-01 7.710048e-01 4.411629e-01 9.506714e-01 1.026854e+00 -9.384051e-03 -3.556664e-01 -1.909871e-01
<VARIANCE> 25
 3.471519e+01 2.707341e+01 2.826175e+01 4.235172e+01 4.770013e+01 5.698353e+01 2.778073e+01 1.170753e+01 2.161270e+01 1.986973e+01 6.215983e+00 1.628362e+01 8.817568e-01 3.461295e+00 1.385533e+00 1.490925e+00 1.522848e+00 2.846757e+00 2.052445e+00 2.162289e+00 2.028821e+00 1.876851e+00 4.561931e-01 7.817929e-01 3.370548e-01
<GCONST> 8.826901e+01
<STATE> 3
<MEAN> 25
 -7.677913e+00 -1.737744e+01 2.935829e+00 8.368796e+00 8.159332e+00 -3.753504e+00 -7.512689e-01 -9.938765e-01 2.240963e+00 1.356734e+00 -8.390795e-01 1.091012e+00 -9.653436e-01 -1.820072e+00 2.055666e-01 -1.611800e-01 -2.073041e-01 -5.220960e-01 3.529561e-02 -7.813854e-02 5.878434e-01 2.835466e-01 1.953204e-01 6.294494e-01 4.848396e-01
<VARIANCE> 25
 1.166150e+01 2.482783e+01 7.467931e+00 1.546367e+01 2.242341e+01 1.569604e+01 9.553491e+00 1.669299e+01 1.938699e+01 1.613218e+01 7.574821e+00 1.436493e+01 1.004234e+00 3.403358e+00 7.024013e-01 8.618753e-01 1.206137e+00 1.425735e+00 6.858148e-01 9.798118e-01 1.575679e+00 1.611356e+00 6.285812e-01 6.534839e-01 3.102995e-01
<GCONST> 7.747823e+01
<STATE> 4
<MEAN> 25
 -6.619156e+00 -1.759195e+01 1.230721e+00 5.350532e+00 2.797133e+00 -4.091863e-01 -3.515523e-01 -1.735963e+00 3.055609e+00 1.801351e+00 -7.843563e-01 3.164443e+00 9.990858e-01 1.665135e+00 -3.950126e-01 -4.101616e-01 -2.691430e-01 1.843859e-01 -3.724837e-01 -1.460875e-01 -4.095453e-01 -4.451902e-01 -2.970256e-01 -2.771021e-01 -3.101243e-01
<VARIANCE> 25
 1.652054e+01 5.549917e+01 2.121060e+01 2.044787e+01 1.620078e+01 1.580231e+01 1.718927e+01 9.820465e+00 2.589758e+01 1.261254e+01 1.004252e+01 1.567908e+01 2.785337e+00 7.186320e+00 1.248322e+00 1.173252e+00 9.617893e-01 1.360080e+00 1.452786e+00 1.047439e+00 1.764289e+00 1.630453e+00 8.651431e-01 8.481991e-01 7.531753e-01
<GCONST> 8.489244e+01
<TRANSP> 5
 0.000000e+00 1.000000e+00 0.000000e+00 0.000000e+00 0.000000e+00
 0.000000e+00 6.955267e-01 3.044733e-01 0.000000e+00 0.000000e+00
 0.000000e+00 0.000000e+00 8.475565e-01 1.524435e-01 0.000000e+00
 0.000000e+00 0.000000e+00 0.000000e+00 9.062600e-01 9.373996e-02
 0.000000e+00 0.000000e+00 0.000000e+00 0.000000e+00 0.000000e+00
<ENDHMM>
~h "th"
<BEGINHMM>
<NUMSTATES> 5
<STATE> 2
<MEAN> 25
 6.612499e+00 -3.414510e+00 -3.815439e+00 -5.655805e+00 -6.366876e+00 -1.941911e+00 1.318494e+00 -1.889361e+00 -1.164989e+00 1.891844e-01 1.030318e-01 1.496583e+00 -3.648748e-01 5.405441e-01 -3.405054e-01 -2.942482e-01 -7.633983e-02 5.818545e-01 5.932881e-01 9.238427e-01 2.461910e-02 -1.627272e-01 4.651732e-01 -1.565192e-01 -9.750398e-01
<VARIANCE> 25
 3.273416e+01 2.159903e+01 1.741546e+01 1.508441e+01 1.677719e+01 1.697732e+01 1.428215e+01 1.186951e+01 2.411941e+01 1.407194e+01 1.503835e+01 1.085202e+01 1.750663e+00 1.068176e+00 1.329769e+00 6.047765e-01 1.019296e+00 7.147024e-01 1.183636e+00 1.410923e+00 1.703127e+00 1.203996e+00 2.044539e+00 5.345452e-01 1.297270e+00
<GCONST> 8.145736e+01
<STATE> 3
<MEAN> 25
 8.815891e+00 1.023431e+00 -5.785620e+00 -8.242272e+00 -8.196534e+00 -1.914796e+00 2.024750e+00 3.135399e+00 4.187006e+00 1.953732e+00 -1.704691e+00 -2.245165e+00 -5.394861e-01 4.178714e-01 1.816584e-01 1.355089e-02 1.333143e-01 3.771205e-01 3.627784e-01 4.100986e-01 3.562466e-01 2.381734e-01 -5.983770e-02 -2.387030e-01 -6.692272e-01
<VARIANCE> 25
 4.464507e+01 1.769958e+01 1.230702e+01 1.181564e+01 1.738032e+01 2.346826e+01 2.293694e+01 1.349371e+01 2.777373e+01 1.072771e+01 1.226333e+01 1.319658e+01 5.329272e-01 5.750365e-01 6.605918e-01 6.291379e-01 7.549599e-01 7.256882e-01 1.055083e+00 1.003157e+00 8.033708e-01 9.533740e-01 7.598782e-01 8.229174e-01 3.811772e-01
<GCONST> 7.582191e+01
<STATE> 4
<MEAN> 25
 -2.782713e+00 1.226371e+00 -1.140290e+00 -3.169945e+00 -2.935004e+00 2.308118e+00 4.057630e+00 3.872758e+00 2.197161e+00 2.077657e+00 1.284736e+00 -4.087923e-01 -2.576402e-01 -8.668081e-02 1.327142e-01 2.600145e-01 2.187059e-01 5.301276e-02 -1.358107e-01 -8.719605e-02 4.681529e-02 6.854860e-02 5.010993e-02 1.817779e-02 -1.512086e-01
<VARIANCE> 25
 6.413548e+00 2.302862e+00 4.455323e+00 9.507287e+00 1.193898e+01 6.403207e+00 5.829691e+00 1.027428e+01 1.364003e+01 1.568521e+01 1.370690e+01 8.958031e+00 1.070214e-01 1.523480e-01 1.848146e-01 1.979627e-01 3.805361e-01 5.379011e-01 4.551435e-01 6.443747e-01 4.927941e-01 6.146940e-01 7.187616e-01 6.533811e-01 5.011293e-02
<GCONST> 5.581019e+01
<TRANSP> 5
 0.000000e+00 1.000000e+00 0.000000e+00 0.000000e+00 0.000000e+00
 0.000000e+00 7.615747e-01 2.384253e-01 0.000000e+00 0.000000e+00
 0.000000e+00 0.000000e+00 8.855675e-01 1.144325e-01 0.000000e+00
 0.000000e+00 0.000000e+00 0.000000e+00 9.467176e-01 5.328246e-02
 0.000000e+00 0.000000e+00 0.000000e+00 0.000000e+00 0.000000e+00
<ENDHMM>
~h "uh"
<BEGINHMM>
<NUMSTATES> 5
<STATE> 2
<MEAN> 25
 -2.284391e-01 -1.436162e-01 -5.783285e-01 -9.979824e-01 -1.687910e+00 2.582266e-01 -4.274536e-01 -1.901683e-01 1.327908e+00 2.064959e+00 2.480543e+00 4.354715e-01 6.305562e-01 5.302970e-01 4.191619e-01 -2.565378e-01 -1.128422e+00 -1.161733e+00 -6.319051e-01 -9.264387e-02 1.328935e-01 2.981664e-01 5.114031e-01 -4.691913e-02 3.136542e-01
<VARIANCE> 25
 3.906396e+01 1.313073e+01 3.884445e+01 4.978817e+01 5.984566e+01 4.193688e+01 3.819852e+01 1.538025e+01 1.722415e+01 2.290337e+01 5.976195e+00 3.925205e+00 8.073927e-01 1.594930e+00 2.639464e+00 3.199215e+00 2.854718e+00 8.564116e-01 5.877917e-01 1.416045e-01 7.434228e-01 1.148231e+00 8.127949e-01 8.314059e-01 7.653180e-01
<GCONST> 8.306762e+01
<STATE> 3
<MEAN> 25
 4.489844e+00 3.753008e+00 7.698600e-01 -2.421166e+00 -5.878671e+00 -3.550716e+00 -6.302944e-01 -1.387652e+00 -4.795982e-01 -7.138538e-02 -2.768723e-01 -1.501496e+00 1.826127e+00 7.283646e-01 6.601315e-01 4.764107e-01 -6.560760e-01 -1.867338e+00 -1.833956e+00 -8.130032e-01 -2.629243e-01 -7.641323e-01 -1.198194e+00 -1.478943e-01 1.299686e+00
<VARIANCE> 25
 2.877901e+01 2.032874e+01 3.575700e+01 3.107931e+01 3.295017e+01 2.307903e+01 6.224135e+01 1.677655e+01 1.021811e+01 1.006284e+01 1.264943e+01 7.913384e+00 1.076860e+00 3.864579e+00 6.266317e+00 7.367519e+00 7.485828e+00 2.484428e+00 4.619756e+00 1.014539e+00 1.621512e+00 9.896647e-01 8.060880e-01 1.035718e+00 1.605849e+00
<GCONST> 9.264816e+01
<STATE> 4
<MEAN> 25
 5.025885e+00 6.023791e+00 5.180440e+00 2.176215e+00 -6.155650e+00 -1.110869e+01 -9.868877e+00 -4.130756e+00 -9.939203e-01 -1.233760e+00 -1.787028e+00 2.352274e-01 -6.078454e-02 -7.382193e-01 -4.945195e-01 -1.422694e-01 -1.959027e-01 -1.641536e-01 7.987971e-01 6.699747e-01 -3.496256e-01 -4.170724e-01 -5.272285e-01 -4.101010e-01 3.142301e-01
<VARIANCE> 25
 3.681531e+01 2.796445e+01 2.302975e+01 2.009765e+01 1.066992e+01 2.428705e+01 4.958043e+01 1.957106e+01 1.714818e+01 1.188701e+01 2.831261e+01 1.475202e+01 1.891484e+00 2.357167e+00 2.060402e+00 1.494728e+00 1.394547e+00 2.998680e+00 5.180404e+00 2.241840e+00 1.898960e+00 2.092798e+00 1.815011e+00 1.364197e+00 2.430561e+00
<GCONST> 9.248540e+01
<TRANSP> 5
 0.000000e+00 1.000000e+00 0.000000e+00 0.000000e+00 0.000000e+00
 0.000000e+00 7.012969e-02 9.298703e-01 0.000000e+00 0.000000e+00
 0.000000e+00 0.000000e+00 6.863158e-01 3.136843e-01 0.000000e+00
 0.000000e+00 0.000000e+00 0.000000e+00 8.474725e-01 1.525275e-01
 0.000000e+00 0.000000e+00 0.000000e+00 0.000000e+00 0.000000e+00
<ENDHMM>
~h "uw"
<BEGINHMM>
<NUMSTATES> 5
<STATE> 2
<MEAN> 25
 4.817177e+00 -1.213068e+00 6.537032e-02 -7.853674e-01 3.213546e-01 4.861580e-01 -1.112666e+00 -3.338701e+00 -3.003921e+00 -2.127289e-01 2.617068e-01 -2.152539e+00 1.048951e+00 8.961328e-01 6.239219e-01 2.734128e-01 -1.045443e-01 -6.942061e-01 -1.212343e+00 -6.899760e-01 -5.627739e-02 -3.337668e-01 -5.277230e-01 -5.885791e-01 5.578196e-01
<VARIANCE> 25
 3.268043e+01 7.776700e+01 1.415259e+01 1.098085e+01 3.912894e+01 4.219089e+01 2.404510e+01 2.062389e+01 1.736390e+01 4.082835e+01 4.440077e+01 1.791665e+01 1.099545e+00 4.669596e+00 2.348331e+00 1.827208e+00 2.508692e+00 5.131854e+00 3.933384e+00 2.625570e+00 2.698443e+00 3.303057e+00 2.140035e+00 1.586621e+00 9.293674e-01
<GCONST> 9.701086e+01
<STATE> 3
<MEAN> 25
 1.010513e+01 8.248010e+00 4.063603e+00 1.466444e+00 -2.137613e+00 -5.027901e+00 -8.404348e+00 -5.947059e+00 -4.972388e-01 -5.798505e-01 -2.832748e+00 -4.763208e+00 -2.376169e-03 6.415570e-01 6.575555e-01 6.191658e-01 -2.036382e-01 -1.402608e+00 -1.428175e+00 -5.427771e-01 4.483796e-01 9.159053e-01 2.926299e-01 -1.759678e-03 -2.277891e-01
<VARIANCE> 25
 1.600397e+01 8.902300e+00 1.114697e+01 7.744117e+00 8.376659e+00 2.291467e+01 2.205510e+01 9.542375e+00 7.201864e+00 8.510995e+00 1.266871e+01 1.396871e+01 6.726346e-01 8.329895e-01 5.695722e-01 9.017912e-01 1.308220e+00 2.513318e+00 2.278509e+00 1.851841e+00 1.095689e+00 1.159175e+00 1.104889e+00 5.738745e-01 4.244662e-01
<GCONST> 7.557336e+01
<STATE> 4
<MEAN> 25
 7.915582e+00 8.089388e+00 5.494478e+00 3.232241e+00 -2.200468e+00 -6.859665e+00 -7.998161e+00 -3.623163e+00 1.015465e+00 1.263706e+00 -2.433892e+00 -4.645720e+00 -6.041853e-01 -7.527542e-01 -3.554349e-01 4.315704e-03 2.346016e-01 7.535030e-01 1.256152e+00 1.056840e+00 1.805679e-01 -3.852882e-01 -2.388397e-01 -1.852212e-02 -2.208843e-01
<VARIANCE> 25
 1.568837e+01 1.520909e+01 1.431680e+01 1.130043e+01 1.660539e+01 2.923138e+01 4.867769e+01 3.366957e+01 1.213725e+01 1.086440e+01 1.057103e+01 9.798002e+00 5.246340e-01 1.418434e+00 1.089976e+00 1.133837e+00 2.316126e+00 2.576536e+00 3.374511e+00 1.669718e+00 1.178478e+00 1.844628e+00 1.927946e+00 2.357923e+00 3.395928e-01
<GCONST> 8.425911e+01
<TRANSP> 5
 0.000000e+00 1.000000e+00 0.000000e+00 0.000000e+00 0.000000e+00
 0.000000e+00 7.941620e-01 2.058381e-01 0.000000e+00 0.000000e+00
 0.000000e+00 0.000000e+00 6.266876e-01 3.733124e-01 0.000000e+00
 0.000000e+00 0.000000e+00 0.000000e+00 8.037636e-01 1.962364e-01
 0.000000e+00 0.000000e+00 0.000000e+00 0.000000e+00 0.000000e+00
<ENDHMM>
~h "zh"
<BEGINHMM>
<NUMSTATES> 5
<STATE> 2
<MEAN> 25
 5.524990e+00 -3.413182e+00 -4.104105e-01 6.773568e+00 6.559205e+00 -2.379176e+00 -6.026466e+00 -5.499416e+00 -6.382090e+00 -4.695120e+00 -9.443331e-01 1.922661e+00 -2.804495e-01 -7.283404e-02 3.168271e-01 1.284264e-01 -4.659502e-02 4.366132e-01 3.582065e-01 -7.687557e-03 1.502525e-01 6.632820e-02 -1.918428e-01 -1.667815e-01 -1.498098e-01
<VARIANCE> 25
 2.421017e+01 2.361424e+01 4.514924e+01 2.932522e+01 8.048277e+00 2.843968e+01 1.732099e+01 1.491665e+01 2.623418e+01 3.534934e+01 1.502436e+01 1.511427e+01 1.066672e+00 1.049524e+00 2.177707e+00 9.386782e-01 8.004690e-01 1.531010e+00 7.045026e-01 1.262262e+00 1.243771e+00 1.635312e+00 5.358165e-01 4.260771e-01 1.015112e-01
<GCONST> 8.058844e+01
<STATE> 3
<MEAN> 25
 3.272571e+00 -5.498783e+00 9.733118e-01 3.831154e+00 6.131401e-01 -2.416480e+00 -2.521054e+00 -2.191596e+00 -2.430621e+00 -5.398689e+00 -2.845363e+00 2.155581e+00 -4.681870e-02 -3.605426e-01 -4.523977e-01 -9.365008e-01 -7.233725e-01 -7.717568e-01 -5.162546e-02 3.702576e-01 3.424254e-01 1.469596e-01 -1.705929e-02 7.598223e-02 2.199370e-01
<VARIANCE> 25
 5.124289e+01 6.188316e+01 5.552343e+01 5.336450e+01 2.753291e+01 4.951612e+01 3.271445e+01 2.018364e+01 3.381979e+01 3.152914e+01 1.817296e+01 7.368392e+00 3.468738e+00 5.304262e+00 2.682544e+00 2.106961e+00 1.450398e+00 1.080122e+00 1.277296e+00 1.083324e+00 2.420509e+00 2.569026e+00 6.752312e-01 7.346406e-01 1.483407e-01
<GCONST> 9.221836e+01
<STATE> 4
<MEAN> 25
 -5.267284e+00 -1.649840e+01 -1.052142e+00 9.368501e-01 -1.598274e+00 -4.805130e-01 6.694562e-01 1.981822e-01 2.452570e+00 2.615161e-01 -2.892953e+00 1.181239e+00 1.903689e-02 5.575294e-01 -4.646889e-01 -3.157135e-01 -2.194843e-01 9.185359e-02 1.235306e-03 7.603680e-02 1.736159e-01 5.330312e-02 -1.514686e-01 -1.577762e-01 -3.883569e-01
<VARIANCE> 25
 3.664083e+01 9.085260e+01 1.655483e+01 1.987730e+01 1.326249e+01 3.426262e+01 4.941277e+01 8.675344e+00 1.579570e+01 1.180297e+01 9.686026e+00 6.935430e+00 2.901398e-01 2.813910e+00 8.290914e-01 6.688145e-01 9.206400e-01 8.808421e-01 8.629091e-01 6.355999e-01 1.100451e+00 1.150769e+00 1.151511e+00 8.885946e-01 3.440782e-01
<GCONST> 7.905823e+01
<TRANSP> 5
 0.000000e+00 1.000000e+00 0.000000e+00 0.000000e+00 0.000000e+00
 0.000000e+00 9.259883e-01 7.401177e-02 0.000000e+00 0.000000e+00
 0.000000e+00 0.000000e+00 8.428092e-01 1.571908e-01 0.000000e+00
 0.000000e+00 0.000000e+00 0.000000e+00 8.103175e-01 1.896825e-01
 0.000000e+00 0.000000e+00 0.000000e+00 0.000000e+00 0.000000e+00
<ENDHMM>
~h "sil"
<BEGINHMM>
<NUMSTATES> 5
<STATE> 2
<MEAN> 25
 -7.180151e+00 -1.237493e+00 -6.260763e-01 -1.384876e+00 -4.798574e-01 2.702946e+00 3.058301e+00 2.090360e+00 1.578464e+00 2.650882e+00 2.725980e+00 1.011603e+00 -3.553552e-02 -7.627795e-03 5.873663e-03 2.845593e-02 3.380647e-02 3.204331e-02 1.738601e-02 4.303943e-02 5.626820e-02 4.924202e-02 4.187685e-02 3.387168e-02 -2.373079e-02
<VARIANCE> 25
 6.333273e+00 2.577913e+00 3.422131e+00 5.950123e+00 6.119895e+00 5.295508e+00 6.260022e+00 6.843289e+00 9.136178e+00 9.756709e+00 7.254298e+00 7.103582e+00 1.070111e-01 1.529618e-01 2.229800e-01 3.153356e-01 4.083723e-01 4.700538e-01 5.805748e-01 6.657997e-01 7.211075e-01 6.939843e-01 5.848037e-01 6.088966e-01 3.981554e-02
<GCONST> 5.310512e+01
<STATE> 3
<MEAN> 25
 -8.093701e+00 -1.391841e+00 -3.807094e-01 -8.730668e-01 6.245583e-01 3.918686e+00 3.757610e+00 2.723258e+00 2.528998e+00 3.484986e+00 3.226268e+00 1.398448e+00 3.600826e-03 6.062125e-03 2.485979e-03 6.700964e-03 9.567947e-03 1.113767e-02 7.444917e-03 6.845707e-03 2.639049e-03 3.060716e-03 3.566172e-03 -2.234295e-03 7.279299e-04
<VARIANCE> 25
 2.972738e+00 1.901128e+00 2.310254e+00 3.862740e+00 4.722046e+00 4.200359e+00 5.171349e+00 5.905018e+00 6.381981e+00 6.314860e+00 5.782756e+00 5.222804e+00 4.590340e-02 8.893239e-02 1.499337e-01 2.141263e-01 2.768219e-01 3.602326e-01 4.472423e-01 5.303384e-01 5.581909e-01 5.447145e-01 5.303992e-01 5.091636e-01 1.486406e-02
<GCONST> 4.398564e+01
<STATE> 4
<MEAN> 25
 1.111375e+00 3.541676e-01 5.930918e-01 5.828955e-01 2.173315e-01 -5.259399e-01 -4.783292e-01 -3.884577e-01 -1.223504e-01 -2.979318e-01 -6.055987e-01 -5.203406e-01 2.032581e-02 1.164636e-02 8.573089e-03 9.450464e-03 3.247105e-03 1.405389e-03 5.170656e-05 -7.958082e-03 -8.352533e-03 -8.014441e-03 -5.052149e-03 -9.243453e-03 1.359513e-02
<VARIANCE> 25
 5.896461e+01 3.080074e+01 2.476772e+01 3.432531e+01 3.685480e+01 5.281778e+01 5.537069e+01 2.721690e+01 2.485777e+01 2.661991e+01 2.152074e+01 1.693045e+01 1.137538e+00 1.285520e+00 1.073440e+00 1.206626e+00 1.499812e+00 1.931475e+00 1.862043e+00 1.340653e+00 1.557973e+00 1.279688e+00 1.207309e+00 1.110326e+00 8.394021e-01
<GCONST> 9.090670e+01
<TRANSP> 5
 0.000000e+00 1.000000e+00 0.000000e+00 0.000000e+00 0.000000e+00
 0.000000e+00 9.577228e-01 4.227719e-02 0.000000e+00 0.000000e+00
 0.000000e+00 0.000000e+00 9.732298e-01 2.677019e-02 0.000000e+00
 0.000000e+00 0.000000e+00 0.000000e+00 9.706681e-01 2.933185e-02
 0.000000e+00 0.000000e+00 0.000000e+00 0.000000e+00 0.000000e+00
<ENDHMM>
